<unk>	0
<s>	0
</s>	0
.	-3.14788
▁	-3.3894
s	-3.90675
,	-3.9252
▁to	-4.32988
▁the	-4.33116
/	-4.38605
▁a	-4.42368
▁and	-4.51221
-	-4.51451
'	-4.53877
▁you	-4.5748
://	-4.70905
com	-4.95351
t	-4.96581
▁it	-5.02134
▁I	-5.03793
▁is	-5.06997
ing	-5.07169
▁for	-5.09262
▁not	-5.09282
:	-5.11259
▁http	-5.17798
▁in	-5.20225
▁that	-5.24775
ed	-5.24852
▁of	-5.27665
."	-5.29731
▁be	-5.36124
▁legal	-5.41047
▁your	-5.48819
No	-5.53064
▁advice	-5.54673
www	-5.56217
▁or	-5.5739
▁are	-5.57928
▁with	-5.59481
?	-5.65039
"	-5.66761
d	-5.68433
▁can	-5.69111
)	-5.69672
▁this	-5.70955
http	-5.71067
▁1	-5.73651
▁A	-5.77736
!	-5.84052
▁have	-5.84489
▁on	-5.85756
e	-5.89986
▁if	-5.90674
](	-5.9322
al	-5.99208
▁"	-6.01199
▁get	-6.01448
y	-6.09443
m	-6.0993
▁he	-6.10953
1	-6.13445
▁offer	-6.14477
▁[	-6.1509
=	-6.17325
▁out	-6.20944
▁they	-6.22279
▁Do	-6.23568
▁allowed	-6.23979
▁her	-6.27001
▁content	-6.28909
▁at	-6.29306
▁request	-6.30663
▁was	-6.31192
▁my	-6.31258
▁referral	-6.31263
▁links	-6.31396
▁promotion	-6.31715
icit	-6.32032
dvertising	-6.32183
▁unsol	-6.32703
ly	-6.32963
n	-6.33163
▁Spam	-6.33324
▁advertising	-6.33524
If	-6.38794
▁me	-6.39328
▁she	-6.40483
▁will	-6.43997
▁just	-6.4564
▁an	-6.46549
I	-6.46999
▁You	-6.4707
▁but	-6.4715
a	-6.4882
▁-	-6.49409
▁do	-6.49814
▁(	-6.50501
_	-6.5082
▁all	-6.51309
p	-6.51992
▁would	-6.52918
▁|	-6.55145
▁them	-6.55378
re	-6.55883
▁don	-6.56263
0	-6.5738
i	-6.57548
▁him	-6.59068
""	-6.60027
▁as	-6.61071
▁from	-6.63012
html	-6.67319
▁go	-6.68886
▁so	-6.69409
▁S	-6.70543
▁should	-6.71588
▁""	-6.71885
▁like	-6.72533
▁there	-6.73489
▁more	-6.73583
▁Stream	-6.75847
S	-6.76834
▁one	-6.77832
▁his	-6.78452
**	-6.80249
in	-6.8053
▁sex	-6.81202
er	-6.82246
▁up	-6.82599
▁C	-6.83945
▁free	-6.84339
▁P	-6.84799
▁here	-6.89838
▁has	-6.90183
B	-6.90882
▁what	-6.91318
b	-6.92188
live	-6.93995
▁about	-6.94103
en	-6.94691
▁3	-6.97177
▁It	-6.98662
2	-6.9992
▁now	-7.01359
▁no	-7.01596
4	-7.01767
▁need	-7.01945
▁want	-7.03201
F	-7.04191
This	-7.04567
▁money	-7.04639
&	-7.08562
▁make	-7.09288
▁then	-7.09797
r	-7.10186
f	-7.10426
C	-7.10781
E	-7.11094
stream	-7.11475
▁#	-7.11739
▁The	-7.12282
▁way	-7.12748
ve	-7.12964
HD	-7.13539
k	-7.14087
▁*	-7.14191
▁M	-7.142
▁could	-7.14303
▁call	-7.15432
▁take	-7.18249
▁2	-7.19494
▁some	-7.20475
▁when	-7.23247
tv	-7.2356
▁any	-7.23566
v	-7.23956
ll	-7.24986
A	-7.25053
▁rape	-7.25061
▁by	-7.25105
T	-7.256
c	-7.26051
▁:	-7.26596
8	-7.2821
▁know	-7.29437
w	-7.29906
3	-7.30194
▁time	-7.30447
watch	-7.30877
▁their	-7.31936
▁help	-7.33082
▁than	-7.33286
▁over	-7.33373
D	-7.34427
▁who	-7.34998
▁other	-7.36683
5	-7.37007
/)	-7.37132
▁Mobile	-7.37204
▁find	-7.37813
php	-7.37968
▁someone	-7.39099
id	-7.39786
cause	-7.39972
L	-7.40467
▁un	-7.41762
!"	-7.4189
/?	-7.42264
▁see	-7.42422
▁back	-7.42553
...	-7.4304
se	-7.43909
▁people	-7.44028
g	-7.44073
W	-7.45083
You	-7.45854
l	-7.46138
▁That	-7.46163
]	-7.46548
▁**	-7.47405
▁law	-7.48028
▁HD	-7.48173
▁say	-7.48989
▁pay	-7.49188
▁only	-7.49666
▁B	-7.50494
▁off	-7.50811
▁tell	-7.50857
▁think	-7.51185
▁being	-7.51276
P	-7.51438
▁work	-7.51565
▁fuck	-7.52299
▁i	-7.52659
▁right	-7.5274
▁sure	-7.52841
The	-7.53128
7	-7.53376
x	-7.53886
▁girl	-7.54969
be	-7.55215
u	-7.56393
▁even	-7.56762
vs	-7.57016
▁police	-7.57127
▁give	-7.57691
▁check	-7.5826
out	-7.58599
▁we	-7.59439
q	-7.5965
▁good	-7.59895
es	-7.61422
?"	-7.61964
▁really	-7.62019
▁best	-7.62684
Y	-7.62812
▁link	-7.6324
SD	-7.64815
▁before	-7.64933
▁were	-7.66184
▁had	-7.66547
▁case	-7.66629
▁put	-7.66843
▁They	-7.66871
▁lawyer	-7.67828
o	-7.68514
youtube	-7.68639
it	-7.69058
▁much	-7.69439
▁how	-7.69593
on	-7.69944
soccer	-7.70715
6	-7.70863
▁He	-7.71317
▁p	-7.72151
▁4	-7.72168
▁On	-7.72324
less	-7.72357
▁illegal	-7.73558
▁D	-7.74075
▁sue	-7.74723
the	-7.75515
▁year	-7.75881
▁after	-7.76451
▁come	-7.77008
very	-7.77474
▁anything	-7.77483
le	-7.77539
▁show	-7.77863
▁most	-7.78423
▁down	-7.78561
first	-7.79141
9	-7.79181
▁vs	-7.80055
▁person	-7.81247
▁child	-7.81718
▁again	-7.82275
*	-7.82334
▁E	-7.82414
▁support	-7.82787
▁English	-7.82995
etymology	-7.83038
▁did	-7.83363
▁L	-7.8433
h	-7.84782
N	-7.84884
▁watch	-7.85048
▁And	-7.85436
st	-7.8565
▁said	-7.87111
X	-7.8713
▁But	-7.87156
▁try	-7.87211
▁well	-7.88236
legaladvice	-7.88481
▁n	-7.88541
▁yourself	-7.88949
▁look	-7.89168
ID	-7.89266
▁use	-7.89504
▁post	-7.89867
App	-7.90386
▁into	-7.90663
able	-7.90852
▁every	-7.90951
▁new	-7.91006
▁F	-7.91538
▁our	-7.91683
going	-7.91973
V	-7.92223
▁contact	-7.92432
▁got	-7.92477
line	-7.9328
▁SD	-7.95082
▁might	-7.95233
probably	-7.95774
free	-7.95852
▁us	-7.96745
▁let	-7.97099
▁Free	-7.97169
U	-7.97244
▁PM	-7.98615
▁T	-7.99478
▁where	-7.99733
ever	-7.99927
and	-8.00102
▁10	-8.01285
▁may	-8.01517
▁great	-8.01589
us	-8.02026
▁5	-8.02864
▁isn	-8.02985
▁court	-8.03007
▁too	-8.03324
K	-8.03805
ion	-8.04235
go	-8.04605
▁NO	-8.04873
▁video	-8.04898
▁something	-8.05205
mgur	-8.05484
view	-8.05542
▁life	-8.06389
▁didn	-8.06535
G	-8.06627
;	-8.07271
▁leave	-8.0743
▁old	-8.07479
▁its	-8.07628
google	-8.07988
▁doesn	-8.08121
▁Just	-8.0815
▁page	-8.08444
▁legally	-8.09016
|	-8.09305
▁guy	-8.09667
▁years	-8.1079
▁won	-8.1088
hd	-8.11168
▁H	-8.11708
soccerstreams	-8.12625
GG	-8.1284
ity	-8.13006
sports	-8.13177
▁ex	-8.13638
▁Live	-8.13727
▁O	-8.1407
ting	-8.14273
▁also	-8.14423
steam	-8.14447
▁house	-8.14788
▁job	-8.15562
now	-8.15853
▁OP	-8.15868
O	-8.16117
▁buy	-8.16224
ies	-8.1685
Reddit	-8.1713
ch	-8.17317
you	-8.17523
twitch	-8.18123
Ask	-8.18765
▁interesting	-8.18831
▁code	-8.18914
▁online	-8.18988
▁site	-8.19322
ld	-8.19361
▁shit	-8.19377
▁shoot	-8.19568
▁why	-8.20049
▁report	-8.20115
▁&	-8.20142
channel	-8.20431
▁own	-8.20493
Oh	-8.20571
ic	-8.21036
Get	-8.21127
▁assault	-8.21297
▁TO	-8.21331
personal	-8.21544
▁c	-8.21946
▁anyone	-8.22153
▁Quality	-8.22595
M	-8.22605
me	-8.22737
▁lot	-8.22748
▁b	-8.23498
▁N	-8.23684
▁high	-8.23917
▁man	-8.2394
▁ENG	-8.2424
It	-8.24483
karma	-8.24583
or	-8.24596
z	-8.2484
li	-8.25528
▁insurance	-8.25534
Find	-8.25722
▁am	-8.25823
▁ADS	-8.25999
ref	-8.2632
▁100	-8.26536
community	-8.26586
▁laws	-8.26932
▁least	-8.27295
▁provide	-8.27571
▁My	-8.27626
▁kill	-8.27687
We	-8.27862
+	-8.27972
English	-8.2805
Z	-8.28237
▁So	-8.28267
▁We	-8.28457
)"	-8.2866
▁hard	-8.28691
▁14	-8.29022
ml	-8.29344
▁7	-8.29584
online	-8.30094
▁away	-8.30297
ers	-8.30586
▁keep	-8.30791
▁sub	-8.308
▁which	-8.31207
▁friend	-8.31288
▁girls	-8.31471
J	-8.31734
▁things	-8.31845
▁Yes	-8.31879
▁real	-8.32078
▁USA	-8.32273
▁Or	-8.32428
MS	-8.32431
▁able	-8.32845
▁Compatible	-8.3295
▁same	-8.32962
new	-8.32983
ING	-8.33005
news	-8.33246
j	-8.33354
▁day	-8.33694
made	-8.33748
instagram	-8.33754
▁Trump	-8.33787
▁does	-8.34117
’	-8.34415
▁point	-8.34434
lease	-8.34548
So	-8.34824
url	-8.35237
▁protect	-8.35565
co	-8.35842
IN	-8.36055
blog	-8.36159
▁place	-8.36363
Stream	-8.36415
▁13	-8.36456
▁YES	-8.3688
▁works	-8.37032
▁Not	-8.37433
▁company	-8.3748
▁while	-8.38175
▁THE	-8.38226
Today	-8.38948
▁R	-8.38961
ac	-8.38988
financ	-8.39122
using	-8.39164
Sex	-8.39254
trade	-8.39425
▁attorney	-8.39734
▁love	-8.40477
▁already	-8.40506
▁stop	-8.41157
do	-8.41203
▁There	-8.41207
▁^^	-8.41288
▁through	-8.41303
▁trust	-8.41304
▁done	-8.41308
▁order	-8.41387
▁keys	-8.41718
▁No	-8.41996
worldwide	-8.42085
▁interested	-8.42181
▁needs	-8.42278
here	-8.42291
video	-8.42327
youtu	-8.42829
▁al	-8.42918
▁under	-8.43013
▁account	-8.43172
▁:)	-8.43251
shop	-8.43702
▁still	-8.43705
▁open	-8.44027
▁fe	-8.44879
▁re	-8.44925
▁remember	-8.45321
▁thing	-8.45346
▁When	-8.455
up	-8.45739
[	-8.45883
▁cops	-8.46274
▁u	-8.46333
▁yes	-8.46404
ince	-8.46807
daily	-8.46863
ment	-8.46929
▁car	-8.47257
▁11	-8.47451
▁Now	-8.47539
▁movie	-8.47573
HE	-8.47636
▁12	-8.48006
▁better	-8.48686
That	-8.4869
▁crime	-8.48792
H	-8.48841
ad	-8.48973
ce	-8.49264
▁start	-8.49572
this	-8.49588
▁Ad	-8.49601
▁In	-8.49719
▁tax	-8.50348
▁YOU	-8.50385
Full	-8.50386
▁100%	-8.50419
SP	-8.50486
girls	-8.50801
▁card	-8.5103
▁guys	-8.51071
offer	-8.51358
▁beat	-8.51494
▁dog	-8.52038
▁Pokemon	-8.52084
▁used	-8.52094
Donald	-8.52145
,1	-8.52268
▁STREAM	-8.52291
▁83	-8.52327
▁found	-8.52392
▁Get	-8.52422
oma	-8.52594
▁state	-8.52624
▁80	-8.5298
▁either	-8.53109
ways	-8.53143
▁For	-8.53362
sport	-8.53545
▁actually	-8.53988
▁8	-8.54053
▁rights	-8.5408
3,0	-8.54141
ful	-8.54475
▁fact	-8.54715
▁play	-8.54763
▁Tyrand	-8.5481
▁such	-8.5484
He	-8.55149
5,1	-8.55318
livestream	-8.55591
▁business	-8.55769
▁70	-8.55904
▁issue	-8.55931
▁require	-8.56279
org	-8.56455
▁cash	-8.56722
streaming	-8.56782
▁90	-8.56804
partner	-8.56843
▁another	-8.56854
▁co	-8.56961
ng	-8.5719
▁wanted	-8.57453
relationships	-8.57563
▁divorce	-8.57563
▁W	-8.57694
▁Thanks	-8.57751
nna	-8.57753
if	-8.5783
▁wrong	-8.5794
▁sell	-8.58007
▁website	-8.58332
▁stream	-8.58363
▁consider	-8.58498
▁6	-8.58684
▁info	-8.58727
▁dollars	-8.59078
▁bank	-8.59205
heck	-8.59346
▁those	-8.5946
token	-8.59541
▁102	-8.60174
▁Mes	-8.60269
cool	-8.60488
▁doing	-8.60792
▁selling	-8.61039
not	-8.61226
▁daughter	-8.61355
▁To	-8.61362
▁94	-8.61403
▁ever	-8.61612
Watch	-8.61847
▁92	-8.62039
▁long	-8.6233
▁nothing	-8.62376
4,0	-8.62595
cheap	-8.62649
Two	-8.63306
▁class	-8.6342
▁107	-8.6354
▁live	-8.63844
▁17	-8.63942
▁clear	-8.64092
▁>>>	-8.64178
▁children	-8.64316
▁room	-8.64454
▁Streams	-8.64683
▁care	-8.64957
night	-8.65003
▁h	-8.65044
▁far	-8.65182
net	-8.653
▁amount	-8.65303
▁w	-8.65326
ation	-8.65435
ga	-8.65546
football	-8.65625
▁once	-8.6564
▁69	-8.65668
Sell	-8.65829
(	-8.65884
▁63	-8.66005
▁age	-8.6613
▁105	-8.66235
▁She	-8.66235
render	-8.66324
▁stuff	-8.66468
8,0	-8.66496
0,0	-8.66561
▁82	-8.667
▁77	-8.66706
▁Watch	-8.66829
▁67	-8.66869
▁68	-8.66981
▁BF	-8.67034
▁110	-8.67092
▁93	-8.6723
▁HER	-8.67258
▁enough	-8.67327
click	-8.67334
▁66	-8.67506
▁99	-8.6754
▁91	-8.67553
lock	-8.67575
▁96	-8.6763
▁72	-8.67814
▁73	-8.68028
▁103	-8.68035
▁65	-8.68038
apply	-8.68043
▁85	-8.68146
th	-8.68198
,000	-8.68234
▁question	-8.68408
ary	-8.68411
My	-8.68418
3.	-8.68599
▁dude	-8.68637
▁86	-8.68701
▁95	-8.68745
▁75	-8.68823
▁U	-8.68835
▁81	-8.68837
▁104	-8.68837
▁bas	-8.69184
Well	-8.69197
▁name	-8.69217
▁64	-8.69238
▁71	-8.69311
▁76	-8.69318
▁feel	-8.69429
lex	-8.69458
▁89	-8.69508
▁40	-8.69555
next	-8.69584
▁download	-8.69683
▁87	-8.6973
til	-8.6983
▁88	-8.70161
▁84	-8.70245
▁stole	-8.70273
of	-8.70421
▁criminal	-8.70452
▁quick	-8.70469
ive	-8.70546
ISH	-8.70559
▁98	-8.70583
▁101	-8.70597
▁74	-8.70663
▁79	-8.71523
Q	-8.71731
▁states	-8.71816
▁spend	-8.71867
▁food	-8.71989
est	-8.72005
▁email	-8.72017
▁113	-8.72034
/42	-8.72171
99	-8.72195
▁97	-8.72255
▁l	-8.7228
MySexFind	-8.72591
<<	-8.72597
▁saying	-8.72609
related	-8.72662
othe	-8.72847
▁112	-8.72869
▁kind	-8.73055
▁108	-8.73265
2016	-8.73384
▁16	-8.73453
pornhub	-8.73683
▁quality	-8.73876
5,0	-8.73918
om	-8.73965
▁9	-8.73996
▁Here	-8.74039
▁US	-8.7407
▁78	-8.74079
▁everyone	-8.74091
tory	-8.74204
▁115	-8.74227
Sports	-8.74505
▁litt	-8.74525
spot	-8.74576
▁believe	-8.74777
▁property	-8.74777
▁62	-8.74853
▁please	-8.74859
▁111	-8.75053
▁114	-8.75157
▁mas	-8.75326
▁wait	-8.75409
3,1	-8.75509
▁sexual	-8.75547
▁116	-8.75652
▁both	-8.75964
▁lie	-8.75989
▁change	-8.76272
▁106	-8.76446
▁K	-8.76577
Web	-8.7672
▁seem	-8.76758
Try	-8.76879
link	-8.77018
▁family	-8.77074
▁sign	-8.77317
▁sound	-8.77672
▁Over	-8.77729
▁=	-8.78091
chase	-8.78165
▁wants	-8.78317
▁tri	-8.7856
▁118	-8.78737
▁reddit	-8.78802
omes	-8.7886
hdmovie	-8.79106
omos	-8.79306
Chr	-8.79329
▁home	-8.79374
hase	-8.7955
1,0	-8.79651
..."	-8.79708
▁act	-8.79806
▁security	-8.79973
▁140	-8.80513
▁IT	-8.80654
AW	-8.80666
▁men	-8.8102
▁117	-8.81156
▁119	-8.81259
ate	-8.81473
▁maybe	-8.81755
R	-8.81909
But	-8.82199
▁15	-8.82414
ovie	-8.82612
▁109	-8.82654
many	-8.82809
▁situation	-8.82827
realmadrid	-8.82828
/"	-8.82902
toi	-8.82987
ually	-8.83118
▁133	-8.83218
lays	-8.83424
▁123	-8.83451
▁risk	-8.83487
▁mean	-8.83517
▁send	-8.83558
▁ass	-8.8363
index	-8.84032
▁address	-8.84032
▁Fast	-8.84032
Good	-8.84092
key	-8.84239
▁kick	-8.84268
▁128	-8.84284
Live	-8.84348
/2	-8.84463
▁121	-8.84589
ENG	-8.84661
ant	-8.84683
▁With	-8.84697
▁137	-8.84913
cf	-8.85034
▁25	-8.85278
age	-8.85525
▁rap	-8.85842
▁pro	-8.85948
▁ground	-8.86074
TS	-8.8617
for	-8.86413
▁country	-8.86553
▁safe	-8.86868
▁certain	-8.87036
star	-8.87043
/4	-8.87231
ile	-8.87714
▁run	-8.87751
▁answer	-8.87775
▁points	-8.88042
▁134	-8.88062
▁Code	-8.88517
▁hav	-8.8858
▁What	-8.88652
@	-8.88789
Android	-8.89002
▁girlfriend	-8.89034
▁suicide	-8.89046
GLI	-8.89074
▁story	-8.89082
ya	-8.89084
led	-8.89116
pics	-8.89214
▁file	-8.89261
▁local	-8.8934
▁130	-8.89364
call	-8.89389
▁number	-8.89433
▁father	-8.8944
ground	-8.89443
15	-8.89677
▁fire	-8.90136
▁days	-8.90236
sexy	-8.90263
▁mus	-8.90279
▁fair	-8.9072
▁141	-8.90797
▁hit	-8.90821
▁service	-8.90845
▁<	-8.90958
we	-8.91085
aza	-8.91326
videos	-8.91332
▁thread	-8.91455
▁head	-8.91506
▁recommend	-8.91582
▁different	-8.91583
▁information	-8.91588
▁Writing	-8.91653
ating	-8.91765
▁fine	-8.91869
▁Also	-8.91976
▁read	-8.92043
▁129	-8.92197
▁127	-8.92493
---	-8.92737
▁Don	-8.92767
atched	-8.92852
▁list	-8.92898
▁suggest	-8.92898
▁hurt	-8.92925
▁124	-8.93006
▁whole	-8.93095
CF	-8.93102
▁2016	-8.93517
▁though	-8.93526
▁bad	-8.93588
▁watching	-8.93677
▁giv	-8.93683
▁131	-8.93795
▁full	-8.93902
▁120	-8.93957
▁136	-8.93972
TCH	-8.94063
▁138	-8.9408
at	-8.94219
▁regard	-8.94231
tumblr	-8.94232
ry	-8.94253
▁break	-8.94698
▁notice	-8.94727
ium	-8.94963
▁30	-8.9499
code	-8.95087
▁area	-8.95096
▁122	-8.95291
▁agreement	-8.9559
▁Windows	-8.9561
▁dick	-8.95611
guy	-8.95683
is	-8.95808
▁parent	-8.95844
▁financial	-8.95945
▁pe	-8.96098
▁125	-8.96218
▁39	-8.96233
zi	-8.96266
▁means	-8.96496
Yes	-8.96501
that	-8.96509
huge	-8.96955
play	-8.97112
▁making	-8.97172
▁hole	-8.97173
▁codes	-8.9729
▁sp	-8.9743
▁hel	-8.97587
▁consent	-8.976
▁135	-8.9775
▁Go	-8.97917
▁times	-8.97983
to	-8.98058
▁claim	-8.9816
=&	-8.98342
▁anyway	-8.98445
First	-8.98451
▁body	-8.98555
ther	-8.98635
ally	-8.99386
km	-8.99453
▁reason	-8.99579
▁social	-8.99712
▁share	-8.99749
▁woman	-8.9975
▁road	-8.99758
▁perfectly	-8.99774
▁valid	-8.99778
▁WITH	-9.00127
▁ask	-9.00408
▁price	-9.00497
▁device	-9.00549
im	-9.00561
ir	-9.00675
▁health	-9.00682
▁61	-9.00691
▁comment	-9.01002
▁evidence	-9.01179
▁method	-9.01179
▁rapist	-9.0118
ilar	-9.01224
▁around	-9.01506
▁AND	-9.01531
▁parents	-9.01856
▁G	-9.0209
▁@	-9.02177
▁hand	-9.02185
For	-9.02317
▁government	-9.02628
▁RIGHT	-9.02628
express	-9.02635
▁board	-9.02648
▁officer	-9.0266
▁true	-9.02773
▁139	-9.03318
30	-9.0335
Mobile	-9.03656
most	-9.03664
55	-9.03911
▁knows	-9.04091
▁easi	-9.04099
rystal	-9.04099
▁caught	-9.04103
musi	-9.04116
Learn	-9.04146
▁132	-9.04198
▁civil	-9.04239
▁possible	-9.04605
mall	-9.04623
du	-9.04779
15,"	-9.04872
ake	-9.04885
▁extra	-9.05468
WE	-9.05519
▁drunk	-9.05594
=600	-9.05595
▁low	-9.05879
Is	-9.05939
fy	-9.05991
▁bit	-9.06087
<	-9.06208
Our	-9.0624
▁end	-9.06273
▁g	-9.06396
site	-9.06768
ated	-9.06861
▁else	-9.07119
havesexwithme	-9.07119
In	-9.07135
▁Facebook	-9.07136
▁depend	-9.07145
▁private	-9.07159
▁charges	-9.0719
▁face	-9.07347
ur	-9.07609
▁talking	-9.07674
▁required	-9.07679
▁trade	-9.07725
▁stay	-9.08003
movie	-9.08195
▁visit	-9.08529
flic	-9.08644
ortmund	-9.08644
▁MOBILE	-9.08695
▁126	-9.0872
▁line	-9.08769
▁kids	-9.08821
Ad	-9.08869
▁app	-9.0895
There	-9.09152
each	-9.09204
▁press	-9.09277
▁d	-9.09317
▁paypal	-9.09323
00-	-9.09482
ign	-9.09489
zo	-9.09526
▁super	-9.09673
)**	-9.09785
Maybe	-9.09923
!!	-9.09935
▁bullet	-9.10207
▁stupid	-9.10208
Poland	-9.10209
▁wife	-9.1021
▁chance	-9.1022
▁Gold	-9.10242
ted	-9.10338
▁](	-9.10445
movies	-9.10553
▁cat	-9.10704
▁word	-9.10811
ware	-9.1101
▁Sport	-9.11121
▁Can	-9.11289
hood	-9.11297
▁problem	-9.1136
porn	-9.11479
wait	-9.11607
▁myself	-9.11795
5290	-9.11801
league	-9.11802
▁fault	-9.11826
▁victim	-9.11826
▁sharing	-9.11848
▁test	-9.11866
▁Ste	-9.11916
▁obviously	-9.12023
▁OK	-9.12033
▁women	-9.12107
▁available	-9.12119
▁dur	-9.12165
▁dead	-9.1217
86,"	-9.12232
▁GO	-9.12344
▁lay	-9.12345
▁less	-9.12718
31,"	-9.12747
▁bonus	-9.12859
30,"	-9.13286
▁PC	-9.1337
CLICK	-9.13408
club	-9.1341
mazon	-9.13414
last	-9.13488
98,"	-9.13541
▁1-8	-9.13624
36,"	-9.13668
▁cover	-9.13701
ut	-9.13819
▁school	-9.14013
26,"	-9.14062
77,"	-9.14285
my	-9.14393
▁earn	-9.14444
▁arrest	-9.14516
▁today	-9.14526
▁drink	-9.14625
ON	-9.14779
ble	-9.15022
▁transplant	-9.15047
▁literal	-9.15048
▁mail	-9.15058
▁prison	-9.15079
ight	-9.15264
▁Canada	-9.15305
▁CAN	-9.15398
41,"	-9.15767
▁night	-9.15772
12,"	-9.15832
▁shot	-9.1606
50,000	-9.16118
ter	-9.16173
89,"	-9.16207
53,"	-9.16351
27,"	-9.16384
NLY	-9.16466
COM	-9.1659
▁vagina	-9.16713
▁500	-9.16744
32,"	-9.17103
▁looking	-9.17499
▁cannot	-9.17701
ar	-9.17701
▁talk	-9.17777
▁door	-9.17891
▁party	-9.17983
mail	-9.1801
hooter	-9.18167
56,"	-9.18296
▁whe	-9.18299
€	-9.18408
▁enjoy	-9.18409
front	-9.1841
▁FBI	-9.18439
▁couple	-9.18442
estos	-9.18464
type	-9.18497
▁taxes	-9.18552
space	-9.18673
▁bills	-9.18689
22,"	-9.18712
arn	-9.18854
90,"	-9.18976
▁yell	-9.19072
▁prove	-9.19218
▁part	-9.19329
17,"	-9.19338
▁Sen	-9.19364
▁FRE	-9.19428
13,"	-9.19491
▁search	-9.19598
72,"	-9.19666
▁amazing	-9.19672
move	-9.2003
20,"	-9.20076
▁fraud	-9.20132
▁push	-9.20137
▁throw	-9.20156
funny	-9.20182
refer	-9.20272
no	-9.20386
▁threat	-9.20411
sex	-9.20488
▁ur	-9.20575
Don	-9.20617
▁18	-9.20648
21,"	-9.20685
▁big	-9.20853
55,"	-9.20883
58,"	-9.21043
/20	-9.21192
▁commit	-9.21265
▁gift	-9.21339
▁$3	-9.21401
73,"	-9.21531
▁entire	-9.21699
▁cop	-9.21702
full	-9.21712
download	-9.21798
14/0	-9.21896
▁violation	-9.21906
▁quit	-9.21911
▁promise	-9.21924
00,"	-9.22267
▁compensation	-9.22425
2&	-9.22453
99,"	-9.2271
▁term	-9.22811
07,"	-9.2284
▁worked	-9.23045
93,"	-9.23047
88,"	-9.23213
2016.	-9.23631
74,"	-9.23647
krat	-9.23679
▁drop	-9.23709
▁hear	-9.23768
▁EN	-9.23799
cestream	-9.23851
▁NOW	-9.23866
19,"	-9.23889
06,"	-9.23892
▁arrested	-9.24255
▁kid	-9.24292
▁safety	-9.24486
62,"	-9.24595
61,"	-9.24815
▁hack	-9.24869
▁easy	-9.24916
▁retard	-9.24956
▁takes	-9.25027
▁worth	-9.25224
via	-9.25246
CEL	-9.25286
rsenal	-9.25335
▁game	-9.25474
▁belong	-9.25491
▁evict	-9.25492
▁control	-9.25494
Depend	-9.25497
▁Link	-9.255
▁sim	-9.25533
▁...	-9.25786
▁permit	-9.25869
by	-9.25968
Here	-9.26098
▁force	-9.26113
49,"	-9.26223
65,"	-9.26377
96,"	-9.26541
25,"	-9.26643
48,"	-9.2685
▁pre	-9.26861
Wh	-9.26923
11,"	-9.26933
look	-9.26985
▁student	-9.27021
14,"	-9.27059
51,"	-9.27076
▁photos	-9.271
▁IS	-9.27164
mission	-9.2731
ỗ	-9.27343
ử	-9.27343
▁Islam	-9.27343
▁manner	-9.27343
▁broke	-9.27348
▁paid	-9.27379
70,"	-9.27633
60,"	-9.27673
▁baby	-9.27776
Hey	-9.28097
Hi	-9.28116
▁short	-9.28197
UC	-9.28199
47,"	-9.28335
42,"	-9.28474
pl	-9.28631
▁settle	-9.28929
69,"	-9.28956
91,"	-9.28972
81,"	-9.29013
de	-9.29119
43,"	-9.29215
People	-9.29229
▁opinion	-9.29229
independent	-9.29231
▁water	-9.29238
▁ruin	-9.29245
▁pretty	-9.29258
▁realize	-9.29258
▁ANY	-9.29274
world	-9.29615
08,"	-9.29646
SH	-9.29657
ze	-9.29674
09,"	-9.29701
top	-9.29718
page	-9.29724
▁bitch	-9.29725
▁charge	-9.29779
95,"	-9.29828
▁$2	-9.29898
FD	-9.29913
80,"	-9.29973
idu	-9.29985
▁options	-9.30002
75,"	-9.30043
sites	-9.30112
▁power	-9.30231
▁public	-9.30483
▁fun	-9.30646
79,"	-9.30708
01,"	-9.30721
red	-9.30896
!!!	-9.30911
▁How	-9.30962
▁thinking	-9.31085
fc	-9.31098
▁damage	-9.31151
▁study	-9.31152
▁message	-9.31153
▁etc	-9.31154
▁pretend	-9.31154
▁immediately	-9.31154
Ireland	-9.31162
exactly	-9.31229
trem	-9.31249
#	-9.31363
00	-9.31477
day	-9.31507
UT	-9.31525
38,"	-9.31635
share	-9.31639
82,"	-9.31648
science	-9.3165
▁Te	-9.31659
ize	-9.31823
ue	-9.32241
50,"	-9.32243
46,"	-9.32262
)|	-9.32306
▁hands	-9.32372
bai	-9.32522
▁stand	-9.3254
44,"	-9.32546
▁dis	-9.3264
names	-9.32673
16,"	-9.32774
▁limit	-9.33113
▁version	-9.33113
▁gun	-9.33115
▁self	-9.33121
▁heart	-9.33124
▁stopped	-9.33249
▁argu	-9.33266
Help	-9.3344
▁identi	-9.33494
▁suck	-9.33519
57,"	-9.3358
▁details	-9.33622
politic	-9.33648
What	-9.3372
71,"	-9.3381
24,"	-9.33831
ump	-9.33941
45,"	-9.34048
ED	-9.34087
card	-9.34106
as	-9.34156
hire	-9.34337
▁Then	-9.34396
28,"	-9.3443
rk	-9.34472
23,"	-9.34534
ca	-9.34568
ous	-9.34629
poses	-9.34636
▁26	-9.34831
78,"	-9.34928
39,"	-9.34956
=9	-9.35098
▁guitar	-9.35113
▁relationship	-9.35113
▁worry	-9.35114
▁visitation	-9.35136
▁boy	-9.35149
num	-9.35153
▁gas	-9.35157
▁proof	-9.35159
10,"	-9.35208
▁completely	-9.3521
35,"	-9.35255
euro	-9.35276
▁treat	-9.35308
ge	-9.35317
ial	-9.35431
Trade	-9.35518
real	-9.35527
city	-9.35569
▁Enjoy	-9.35585
34,"	-9.35631
▁Hillary	-9.35652
tele	-9.35673
76,"	-9.35693
▁solution	-9.35724
▁channel	-9.35796
livesport	-9.35813
ps	-9.35974
ness	-9.36048
5%	-9.36055
sh	-9.36124
▁return	-9.36129
92,"	-9.36162
▁games	-9.36222
▁waiting	-9.36295
mus	-9.36319
▁ok	-9.36367
%	-9.36407
▁persons	-9.36463
▁sa	-9.365
▁doctor	-9.3681
AA	-9.36958
52,"	-9.36967
apps	-9.37098
an	-9.37135
▁between	-9.37154
▁value	-9.37157
▁begin	-9.37158
▁refuse	-9.37195
pharma	-9.37233
▁soft	-9.37265
▁mind	-9.37287
83,"	-9.37301
▁hope	-9.37373
py	-9.37452
FC	-9.37506
▁nic	-9.37547
▁Maybe	-9.37547
ice	-9.3755
estop	-9.37579
▁ago	-9.37615
tion	-9.37655
friend	-9.37786
▁scar	-9.37858
credit	-9.37869
68,"	-9.3788
▁earning	-9.3795
29,"	-9.37993
Can	-9.38
84,"	-9.38003
40,"	-9.38091
eu	-9.38126
04,"	-9.3819
03,"	-9.38207
fter	-9.38227
ube	-9.38478
▁item	-9.38506
Overwatch	-9.38548
33,"	-9.38548
97,"	-9.38594
andy	-9.38769
▁Ve	-9.39112
▁husband	-9.39237
▁landlord	-9.39237
▁defend	-9.39242
▁tits	-9.39248
▁ga	-9.39301
▁physical	-9.3935
▁directly	-9.39406
▁server	-9.39448
cm	-9.3963
▁User	-9.397
37,"	-9.39786
fa	-9.39786
3/	-9.39793
▁writing	-9.39818
▁soon	-9.39957
facebook	-9.39964
ified	-9.4044
pay	-9.40465
tR	-9.40515
bo	-9.40563
shot	-9.40604
85,"	-9.40607
)."	-9.40701
turbate	-9.4071
▁attempt	-9.40729
TER	-9.41238
ions	-9.41274
▁demand	-9.41365
▁herself	-9.41365
▁brother	-9.41367
adsby	-9.41368
yards	-9.41368
▁license	-9.4137
▁Even	-9.41411
ELL	-9.41421
▁understand	-9.4149
▁regularly	-9.41491
diagnosed	-9.41508
▁created	-9.41529
▁transfer	-9.4163
94,"	-9.41805
▁decide	-9.41852
shut	-9.41871
▁BA	-9.41975
RC	-9.42032
work	-9.42166
▁pills	-9.42247
reddit	-9.42288
store	-9.4236
=1	-9.42552
ler	-9.4259
▁store	-9.42623
▁fucked	-9.42737
ku	-9.42748
64,"	-9.42787
▁spen	-9.42861
54,"	-9.4306
▁su	-9.43092
bin	-9.43173
▁close	-9.4319
59,"	-9.43373
▁add	-9.43513
Google	-9.43539
®	-9.43539
▁camera	-9.4354
▁shipping	-9.43541
▁follow	-9.43543
apphire	-9.43547
genti	-9.43564
▁assum	-9.43591
▁leg	-9.4364
▁charged	-9.43939
▁Like	-9.43987
42	-9.44019
▁female	-9.44144
▁asked	-9.44374
▁note	-9.4445
rope	-9.44471
Ste	-9.4469
=""	-9.44949
02,	-9.45119
=_	-9.45291
▁handle	-9.45334
▁subscribe	-9.45707
ebay	-9.45759
roadrunner	-9.45761
▁jail	-9.45761
▁suspect	-9.45761
▁two	-9.45762
pokemongo	-9.45792
▁bitcoin	-9.45793
▁letter	-9.45817
87,"	-9.45898
oy	-9.45915
▁>>>**	-9.46012
▁direct	-9.46153
Kill	-9.46287
▁Video	-9.46362
▁slut	-9.46366
ST	-9.46443
18,"	-9.46479
fund	-9.46618
67,"	-9.46756
app	-9.46833
CE	-9.47348
shirt	-9.4771
▁months	-9.47757
▁$50	-9.47953
window	-9.47985
gone	-9.48014
GlobalOffensive	-9.48034
▁doubt	-9.48034
▁idiot	-9.48034
pc	-9.48064
▁smart	-9.48098
14	-9.48125
▁v	-9.48236
▁murder	-9.48239
ybody	-9.48262
▁month	-9.4832
▁FOR	-9.48415
▁stolen	-9.48427
▁tips	-9.48584
ba	-9.48585
▁promo	-9.48879
▁fight	-9.48985
▁21	-9.49081
thing	-9.49089
66,"	-9.49206
pokemon	-9.49218
suit	-9.49321
door	-9.49343
▁19	-9.49358
Use	-9.49504
▁per	-9.4962
ittle	-9.49692
ify	-9.49789
▁DO	-9.49809
35,	-9.50256
gram	-9.50334
▁Preferred	-9.50359
▁dismissed	-9.50359
▁sister	-9.5036
clinton	-9.50361
▁expect	-9.50362
▁yet	-9.50367
▁avoid	-9.50403
▁everything	-9.50525
▁seriously	-9.50536
▁profit	-9.5057
▁viral	-9.5057
▁involved	-9.50627
he	-9.50666
cl	-9.50894
▁problems	-9.51003
▁son	-9.51089
▁experience	-9.51325
bam	-9.51328
don	-9.51359
ent	-9.51501
05,"	-9.516
paypal	-9.51726
▁23	-9.51825
▁alone	-9.51838
▁count	-9.51894
▁lad	-9.52094
▁willing	-9.52134
▁f	-9.52275
lway	-9.52366
chat	-9.52384
Do	-9.524
▁serious	-9.52561
▁actual	-9.52578
▁50	-9.52608
▁questions	-9.52635
ig	-9.52733
▁speech	-9.5274
▁equal	-9.52743
▁vari	-9.52746
hub	-9.52765
▁parties	-9.52791
essay	-9.52806
12	-9.52869
▁pull	-9.52927
▁mother	-9.53082
/3	-9.53119
ine	-9.53129
▁air	-9.53168
05,	-9.53201
ty	-9.53475
pn	-9.53586
▁Yeah	-9.53717
▁serve	-9.5388
▁pokemon	-9.53891
▁New	-9.53986
▁Streaming	-9.5406
▁compare	-9.54129
▁idea	-9.54142
Euro	-9.54175
Sky	-9.54182
Yeah	-9.54191
▁MA	-9.54457
▁places	-9.5446
5.	-9.5456
▁abortion	-9.54566
▁book	-9.54599
email	-9.54609
best	-9.54804
>	-9.54907
KE	-9.54979
▁effective	-9.54997
50	-9.55067
▁FUCK	-9.55174
NSFW	-9.5518
▁multipl	-9.55184
=15	-9.55247
▁27	-9.55333
nent	-9.55378
▁jury	-9.55432
ener	-9.5549
▁second	-9.55526
ak	-9.55532
▁citizen	-9.55616
DY	-9.55639
▁termina	-9.55778
ne	-9.55959
know	-9.55987
LY	-9.56006
▁attention	-9.56112
28,	-9.56269
-18	-9.56272
79,	-9.56405
38,	-9.56567
▁More	-9.56631
▁OF	-9.567
ft	-9.56727
gg	-9.56757
▁record	-9.56782
|[	-9.56801
room	-9.56812
▁AS	-9.56905
66,	-9.56977
poke	-9.56996
54,	-9.57162
40	-9.5729
16,	-9.57565
Bu	-9.57576
ability	-9.57582
empt	-9.57641
▁MOBIL	-9.57679
▁defense	-9.57679
▁construction	-9.57681
▁immi	-9.57683
UFF	-9.57691
uefa	-9.57697
▁correct	-9.5773
cker	-9.57743
9,	-9.57811
▁drug	-9.57891
tress	-9.57943
▁removed	-9.58043
▁surprise	-9.58198
▁mill	-9.58251
▁cost	-9.58311
ha	-9.58448
ach	-9.58454
▁$4	-9.58625
Streaming	-9.58889
63,"	-9.58897
▁weeks	-9.58919
mg	-9.58983
MON	-9.5916
▁Wh	-9.59298
dance	-9.59409
▁hacker	-9.59456
▁At	-9.59516
04	-9.59612
▁UP	-9.59663
FH	-9.59694
▁Be	-9.59728
▁research	-9.59828
▁35	-9.5987
▁Should	-9.5991
team	-9.6004
pple	-9.60136
ontact	-9.60141
▁shad	-9.60212
▁reject	-9.60244
eicester	-9.60244
▁left	-9.60245
▁learn	-9.60246
OUND	-9.60246
▁Rewards	-9.60248
▁jump	-9.60249
male	-9.6027
▁transaction	-9.6028
alcon	-9.6031
▁community	-9.60329
▁judge	-9.60425
withdraw	-9.60445
▁picture	-9.60818
▁wa	-9.60901
▁clients	-9.60973
▁sued	-9.60976
▁marriage	-9.61032
68,	-9.61067
▁Call	-9.61148
▁videos	-9.6131
67,	-9.61336
▁knowing	-9.6144
▁donation	-9.61664
▁prec	-9.61698
AP	-9.61755
▁young	-9.61771
45,	-9.61803
▁paper	-9.61857
▁33	-9.61908
02,"	-9.61988
post	-9.62168
remove	-9.62291
US	-9.62421
To	-9.6247
Obviously	-9.62875
▁Carol	-9.62875
▁Unfortunately	-9.62875
▁ethics	-9.62875
▁Lawyer	-9.62875
▁pussy	-9.62875
anchester	-9.62876
▁extortion	-9.62876
moore	-9.62877
▁medicine	-9.62877
▁liqu	-9.62878
▁GPS	-9.62887
▁sense	-9.62889
▁destr	-9.62903
▁minor	-9.62924
03,	-9.62952
american	-9.62966
gmail	-9.62983
Old	-9.63061
▁due	-9.63102
erry	-9.63111
all	-9.63121
▁sorry	-9.63209
▁war	-9.63229
plus	-9.63229
ko	-9.63311
▁All	-9.6337
UM	-9.63528
▁owners	-9.6356
cat	-9.63563
▁win	-9.63564
▁eat	-9.63596
▁trial	-9.63667
gy	-9.63992
▁2017	-9.64018
39	-9.64023
so	-9.64159
58,	-9.6433
fe	-9.6446
itm	-9.64509
▁started	-9.64547
▁photo	-9.64558
light	-9.64632
hook	-9.64831
64,	-9.64843
writing	-9.64871
info	-9.6489
uk	-9.65026
▁owe	-9.65222
forced	-9.65281
▁checks	-9.6531
▁EVER	-9.65324
uffin	-9.65345
io	-9.65482
▁specific	-9.65518
▁BRO	-9.65535
▁fore	-9.65558
▁Constitution	-9.65578
▁addition	-9.65578
▁comfortable	-9.65578
▁custod	-9.65578
▁perhaps	-9.65578
ottenham	-9.65578
▁Browser	-9.65578
▁secret	-9.65592
LPT	-9.65594
=215	-9.65609
▁luck	-9.65611
▁adult	-9.65632
▁legitimate	-9.65634
▁//	-9.65673
▁step	-9.65922
▁sever	-9.65942
78,	-9.65992
UN	-9.66077
▁]	-9.6614
ell	-9.66143
ladies	-9.66396
▁violent	-9.66508
MAR	-9.66583
18	-9.66623
▁cheaper	-9.66664
22	-9.6668
can	-9.668
▁signed	-9.66876
▁Game	-9.66919
▁31	-9.67011
▁rare	-9.67015
fra	-9.67122
▁credit	-9.67387
ru	-9.67405
6,	-9.67528
▁HERE	-9.67725
29,	-9.67809
43,	-9.67821
And	-9.67937
Promo	-9.68195
97,	-9.68203
▁simpl	-9.68273
▁deal	-9.68302
AtheismIsDead	-9.68356
▁accept	-9.68356
▁Bernie	-9.68356
▁steal	-9.68356
▁manslaughter	-9.68357
▁terri	-9.68358
▁spam	-9.68361
▁perform	-9.68361
▁possession	-9.68366
▁delivery	-9.68366
Phone	-9.68366
▁Compatibility	-9.68373
▁gut	-9.68385
▁However	-9.68406
▁blam	-9.68414
38	-9.6848
FL	-9.68489
▁buddy	-9.68509
▁industry	-9.68553
ient	-9.68592
▁161	-9.68636
-8	-9.68733
▁twitter	-9.68798
▁spell	-9.68923
▁plann	-9.68993
▁Fuck	-9.69019
dge	-9.69067
▁mistake	-9.69081
Be	-9.69126
▁Non	-9.69183
▁lawsuit	-9.69218
▁waste	-9.69223
ance	-9.69347
▁music	-9.69374
AF	-9.69433
▁touch	-9.69456
▁As	-9.69598
▁claims	-9.69666
OTE	-9.69666
They	-9.69767
▁49	-9.69795
61,	-9.69819
On	-9.69848
forums	-9.69968
▁wouldn	-9.70102
▁miss	-9.70184
34,	-9.70263
Arbitration	-9.70509
▁mate	-9.7061
▁world	-9.70624
special	-9.70639
quality	-9.70691
STREAM	-9.70691
When	-9.70845
94,	-9.70855
os	-9.70907
ay	-9.71034
▁List	-9.71071
▁genuine	-9.71213
▁later	-9.71213
▁WHAT	-9.71214
premier	-9.71223
▁decision	-9.71224
▁feelings	-9.71248
74,	-9.71303
▁appro	-9.71329
▁younger	-9.71339
wild	-9.71341
cam	-9.71343
47,	-9.71363
▁news	-9.71365
▁<3	-9.7137
▁course	-9.71478
2.	-9.71485
list	-9.71618
life	-9.71622
-2016/	-9.71686
▁amendment	-9.71733
likely	-9.71772
xq	-9.71843
bag	-9.71922
▁source	-9.71977
▁tree	-9.7199
MY	-9.7202
amp	-9.72187
/1	-9.72261
ia	-9.72267
▁entit	-9.72337
52	-9.72558
ER	-9.72577
▁Would	-9.72723
744	-9.72895
▁services	-9.72927
TY	-9.73054
usa	-9.73139
el	-9.73176
words	-9.73195
▁steam	-9.73323
ydro	-9.73364
▁Everyone	-9.73459
Hq	-9.7346
dating	-9.73463
Trump	-9.73574
▁deals	-9.73586
hell	-9.73661
twitter	-9.73687
ES	-9.73831
52,	-9.73964
Ch	-9.74089
starwood	-9.74148
▁Service	-9.74154
▁Source	-9.74154
▁access	-9.74154
▁example	-9.74154
▁position	-9.74154
▁scumbag	-9.74154
▁supervise	-9.74154
▁convince	-9.74154
▁pact	-9.74156
▁fraudulent	-9.74159
▁fast	-9.74171
irth	-9.74222
▁Email	-9.7423
blind	-9.74275
▁burn	-9.74314
▁argument	-9.74316
ern	-9.74329
▁belt	-9.74371
vy	-9.74382
ists	-9.74467
▁Lea	-9.74503
85,	-9.7451
ho	-9.74657
92,	-9.74752
▁SO	-9.74774
▁national	-9.74848
▁pain	-9.74876
/8	-9.75024
▁Card	-9.75069
8.1	-9.75166
car	-9.75179
▁tire	-9.75209
76,	-9.75311
96,	-9.75347
18,	-9.75426
cer	-9.7548
▁20	-9.75537
59,	-9.75731
▁thought	-9.75786
73,	-9.75809
89,	-9.76019
bot	-9.76028
60	-9.76062
23,	-9.76125
au	-9.76222
99,	-9.76225
pm	-9.76264
she	-9.76317
ped	-9.76324
7,	-9.76401
40,	-9.76591
47	-9.76699
SN	-9.76721
DS	-9.76803
▁path	-9.76954
▁+	-9.77109
unch	-9.77172
submit	-9.77182
responsible	-9.77184
▁piece	-9.77184
testimony	-9.77185
etsy	-9.77186
jpg	-9.77194
hose	-9.77258
17,	-9.77323
lace	-9.77391
▁stabbing	-9.77489
meme	-9.7754
either	-9.77541
hk	-9.77743
▁Mill	-9.77797
▁seat	-9.77875
dp	-9.77972
ception	-9.78012
04,	-9.78017
game	-9.78054
11,	-9.78074
cal	-9.78082
audi	-9.7809
▁Start	-9.78189
login	-9.78268
▁slave	-9.7832
▁ship	-9.7832
▁changed	-9.78337
ero	-9.78496
pq	-9.78505
ah	-9.7852
autiful	-9.78548
75,	-9.78714
25,	-9.78816
wards	-9.78899
▁phone	-9.79011
▁regular	-9.7905
▁Re	-9.79151
▁risks	-9.7935
24	-9.79385
▁ad	-9.79562
▁records	-9.79757
nd	-9.79936
given	-9.80003
ather	-9.80009
press	-9.80077
▁cards	-9.80085
details	-9.80107
▁bus	-9.80144
case	-9.80266
ugget	-9.80309
▁Diamond	-9.80309
▁minimum	-9.80309
▁Pokémon	-9.80309
▁policy	-9.80309
wordpress	-9.80309
▁sweet	-9.8031
motive	-9.8031
album	-9.8031
▁investigation	-9.80311
Very	-9.80311
▁leak	-9.80311
▁Website	-9.80311
▁auto	-9.80312
▁sentence	-9.80312
xycodone	-9.80315
▁battery	-9.80317
▁switch	-9.80317
etjm	-9.80317
▁exposure	-9.80318
codone	-9.80321
▁stock	-9.80321
▁milit	-9.80321
▁permission	-9.80322
check	-9.80326
▁deserve	-9.8034
▁Make	-9.80346
▁reach	-9.80349
▁punch	-9.80375
▁consult	-9.8039
▁title	-9.80394
BER	-9.80519
▁computer	-9.80602
pages	-9.80637
▁patient	-9.8064
EO	-9.80651
▁die	-9.80663
▁forget	-9.80717
SIC	-9.80761
▁LL	-9.80769
NA	-9.8077
▁media	-9.80777
▁tie	-9.80892
▁lost	-9.80942
▁sold	-9.80948
25	-9.81098
▁blow	-9.81161
till	-9.81164
▁Eas	-9.81181
ending	-9.81269
▁stra	-9.81339
▁posting	-9.81431
▁purpose	-9.81433
QUAL	-9.81568
▁Euro	-9.8161
Po	-9.81662
▁brain	-9.81677
ish	-9.81724
▁black	-9.81734
user	-9.81757
98,	-9.82079
▁roll	-9.82255
/5	-9.8227
ttention	-9.82311
▁seen	-9.82347
▁tight	-9.82425
▁jailbreak	-9.82426
▁politic	-9.82494
39,	-9.82496
SER	-9.82508
Te	-9.82579
▁UR	-9.82597
37,	-9.82628
button	-9.82674
84,	-9.82815
creepy	-9.82937
▁HR	-9.83008
▁sea	-9.83034
69,	-9.83132
▁cut	-9.83292
▁Na	-9.83299
▁industr	-9.83318
topic	-9.83329
858	-9.83371
91,	-9.83381
▁lose	-9.83396
just	-9.83442
▁pictures	-9.83457
xposure	-9.83531
▁publish	-9.83535
▁satisfied	-9.83535
Article	-9.83535
▁society	-9.83535
▁Discount	-9.83535
▁dumps	-9.83536
▁punishment	-9.83537
wiki	-9.83537
▁favor	-9.83539
▁estate	-9.8354
▁standard	-9.83542
▁intention	-9.83547
▁HIV	-9.83551
▁treatment	-9.8357
cancel	-9.83576
78	-9.83588
▁route	-9.83683
▁Germany	-9.83712
▁Eng	-9.83739
▁rules	-9.83769
acket	-9.83815
gi	-9.83907
KS	-9.83913
▁protester	-9.83917
ether	-9.83927
right	-9.83941
emo	-9.83952
▁side	-9.83965
45	-9.84127
27,	-9.84294
"""	-9.84381
▁remove	-9.84447
▁hang	-9.84506
▁MD	-9.84511
▁attempting	-9.84515
▁foot	-9.8456
ntly	-9.84622
LD	-9.8469
09,	-9.8475
70,	-9.84869
▁Bu	-9.84958
▁reading	-9.85135
87,	-9.85171
10,	-9.8531
apk	-9.85386
▁De	-9.85411
-10	-9.85769
hoste	-9.85787
II	-9.85945
▁track	-9.86186
630	-9.86195
20,	-9.86206
market	-9.8633
hl	-9.86398
24,	-9.86428
▁solve	-9.86511
Show	-9.86547
Nv	-9.86596
▁Games	-9.86648
ama	-9.86667
legal	-9.86674
71,	-9.86741
▁final	-9.86742
▁Jo	-9.86806
thought	-9.86831
elde	-9.86831
retty	-9.86845
▁exercis	-9.86868
▁future	-9.86868
▁Otherwise	-9.86869
▁South	-9.8687
▁strong	-9.8687
▁permanent	-9.86871
bscr	-9.86871
▁Hope	-9.86873
hind	-9.86876
▁floor	-9.8688
▁TV	-9.86893
WHAFF	-9.86894
voice	-9.86896
across	-9.86902
menu	-9.86913
▁drawing	-9.86923
time	-9.8693
▁currency	-9.86936
▁Cunt	-9.86975
42,	-9.86993
pparently	-9.87011
PIN	-9.8707
▁oh	-9.87171
uch	-9.87192
▁tru	-9.87196
▁Ro	-9.87222
▁Mac	-9.87226
Baka	-9.87267
iz	-9.87354
▁sleeping	-9.8738
unit	-9.87389
▁ster	-9.87397
but	-9.87472
01,	-9.8748
7904	-9.87545
▁allow	-9.87557
6843	-9.87656
▁pop	-9.87668
rly	-9.87718
▁friendly	-9.8774
URL	-9.87759
Make	-9.87833
fully	-9.87873
60,	-9.87875
ANDR	-9.87892
36,	-9.88008
AQ	-9.88083
wlive	-9.88152
Bes	-9.88158
▁medical	-9.88206
▁Thank	-9.88282
▁Hot	-9.88485
49	-9.88663
▁event	-9.88767
tional	-9.8882
50,	-9.88892
vl	-9.8896
?!	-9.88966
>>>>	-9.89035
FJ	-9.89074
▁pass	-9.89161
32,	-9.89199
cing	-9.89273
xy	-9.89275
▁:-	-9.89304
atch	-9.89307
▁coupon	-9.8944
▁asking	-9.89454
▁Li	-9.8947
PS	-9.89509
bt	-9.8962
Co	-9.89658
▁workers	-9.89678
Because	-9.8979
82,	-9.89832
▁im	-9.89884
▁deca	-9.90012
80,	-9.90042
▁killing	-9.90047
zing	-9.90129
22,	-9.90186
▁sur	-9.90207
thrones	-9.90315
▁instantly	-9.90317
▁therapy	-9.90317
▁welcome	-9.90318
▁para	-9.90318
▁behavior	-9.90318
▁assets	-9.90318
▁nuts	-9.90319
▁deep	-9.9032
▁write	-9.90324
▁laptop	-9.90328
▁definitely	-9.9033
▁internet	-9.90332
▁Does	-9.90346
▁uncle	-9.90348
axp	-9.90356
=63	-9.90357
back	-9.90384
▁design	-9.90386
gender	-9.90391
book	-9.90392
▁bitches	-9.9042
subscribe	-9.90442
social	-9.90464
buy	-9.90476
love	-9.90477
some	-9.90483
▁Cert	-9.90524
▁bring	-9.90546
▁Any	-9.9057
west	-9.90576
▁bur	-9.90588
▁mental	-9.90641
▁pregnant	-9.90653
▁catch	-9.90729
1979	-9.90745
ide	-9.90813
capacit	-9.90838
31,	-9.90841
-27	-9.91065
▁ra	-9.91151
▁freedom	-9.91156
▁los	-9.91255
▁Black	-9.91262
ucks	-9.91298
▁web	-9.91314
▁product	-9.91409
show	-9.91508
▁Mod	-9.9151
ten	-9.9154
▁LI	-9.9155
your	-9.91578
▁happens	-9.91693
▁crimes	-9.91737
▁driving	-9.91896
▁Sky	-9.91975
hort	-9.91999
gf	-9.92082
IM	-9.92113
forum	-9.92408
▁con	-9.92418
end	-9.92727
nh	-9.93026
88,	-9.93034
tuck	-9.931
▁speak	-9.93234
▁2:	-9.93242
▁thanks	-9.93311
OR	-9.93358
13,	-9.9344
la	-9.93446
▁threaten	-9.93461
multi	-9.93524
▁chi	-9.93665
thor	-9.93675
▁exact	-9.93745
▁streams	-9.93846
hibit	-9.93874
▁Leg	-9.93878
-750-0-	-9.93879
Tampa	-9.93884
▁paternal	-9.93888
lagiarism	-9.93888
▁associate	-9.93888
▁opportunity	-9.93888
▁response	-9.93888
▁witness	-9.93888
▁danger	-9.93888
iscord	-9.93888
▁impulsive	-9.93888
▁retraction	-9.9389
▁copyright	-9.9389
▁IRS	-9.93892
▁blowback	-9.93894
▁federal	-9.93895
▁denial	-9.93902
▁cry	-9.93905
Donger	-9.93907
Raise	-9.93912
▁coins	-9.93913
-2016-	-9.93919
▁punished	-9.93937
ors	-9.93939
Cash	-9.93939
Future	-9.93952
Drake	-9.93961
▁inside	-9.93963
Great	-9.93981
▁eye	-9.94017
▁known	-9.94035
AN	-9.94069
▁damages	-9.94075
what	-9.94096
visit	-9.94118
IDM	-9.94128
people	-9.9414
illegal	-9.94142
lly	-9.94177
/6	-9.94223
▁Ken	-9.94242
46,	-9.94254
▁hell	-9.94331
▁Easie	-9.94354
form	-9.94374
LX	-9.94378
chemi	-9.9438
nia	-9.94595
▁Hug	-9.94625
corne	-9.94637
▁missing	-9.94699
make	-9.94705
26,	-9.94715
▁weapons	-9.94825
▁rest	-9.94836
▁cast	-9.94919
▁chat	-9.94947
95,	-9.95071
19,	-9.95094
▁kil	-9.95139
62,	-9.95149
▁chai	-9.9519
86,	-9.95343
▁form	-9.95361
57,	-9.95444
nam	-9.95468
▁injury	-9.95468
▁expert	-9.95508
TV	-9.95527
▁buck	-9.95538
▁illegally	-9.95551
▁ON	-9.95621
wallow	-9.95658
▁set	-9.95763
▁statements	-9.95767
▁purchases	-9.95804
2781	-9.96047
robably	-9.96157
UR	-9.96189
vid	-9.96345
▁Lay	-9.96376
▁V	-9.96389
▁pl	-9.96449
10.	-9.9662
48	-9.96693
All	-9.967
65,	-9.9679
21,	-9.96854
51,	-9.97001
▁temp	-9.97141
ither	-9.97207
63,	-9.97223
▁Ba	-9.97272
▁emails	-9.97313
nvite	-9.97325
33,	-9.97358
qui	-9.97401
▁complete	-9.97419
▁traffic	-9.97473
eepublic	-9.97499
ngosxrmfb	-9.97592
▁1-844-659-1035	-9.97592
▁Perfect	-9.97592
▁mouth	-9.97592
▁regret	-9.97592
▁suffer	-9.97592
▁organiz	-9.97592
▁regulations	-9.97592
WATCH	-9.97592
eespring	-9.97592
▁Plus	-9.97592
▁Support	-9.97592
▁instead	-9.97593
▁0.02	-9.97593
ywood	-9.97594
▁curious	-9.97595
rogati	-9.976
▁harassment	-9.97601
▁builder	-9.97601
Visio	-9.97603
▁remain	-9.97607
▁bike	-9.97616
wallet	-9.97624
▁basis	-9.9765
LINK	-9.97656
▁according	-9.97677
▁technically	-9.97712
▁sale	-9.97864
magic	-9.97887
▁block	-9.97896
thread	-9.97908
EVER	-9.97943
How	-9.97957
▁caused	-9.97982
2-	-9.97994
path	-9.98003
15612	-9.98017
PUR	-9.98058
▁absolute	-9.98132
bz	-9.98143
kit	-9.9815
nter	-9.98158
00,	-9.98177
▁Ver	-9.9824
43	-9.98456
deal	-9.98481
▁certificate	-9.98556
▁filed	-9.98642
rb	-9.98734
/10	-9.98907
▁include	-9.99012
▁ro	-9.9907
bg	-9.99096
▁committ	-9.9913
▁Man	-9.99139
07,	-9.99174
ring	-9.99269
ians	-9.99297
▁statu	-9.9936
lation	-9.99571
▁Reddit	-9.99757
▁provid	-9.99916
NS	-9.99974
uri	-10.0007
yo	-10.0009
▁Although	-10.0014
ma	-10.0033
cy	-10.0034
48,	-10.0041
/0	-10.0041
/53	-10.0051
▁sent	-10.0059
azar	-10.0063
06,	-10.0066
nyone	-10.0076
▁citizens	-10.0076
▁Mon	-10.0088
▁torrent	-10.0096
41,	-10.0098
ri	-10.0109
affiliate	-10.0121
▁purchase	-10.0122
▁300	-10.0123
▁ban	-10.0123
:--|:--|	-10.0144
Jail	-10.0144
School	-10.0144
travest	-10.0144
▁PEOPLE	-10.0144
▁PERSON	-10.0144
▁antique	-10.0144
▁wickr	-10.0144
Hello	-10.0144
▁damn	-10.0144
nfl	-10.0144
ivan	-10.0144
▁APK	-10.0144
▁sometimes	-10.0144
▁documents	-10.0144
▁prevent	-10.0144
eroshare	-10.0145
accidentally	-10.0145
gaming	-10.0146
▁crap	-10.0147
▁medicati	-10.0148
▁mom	-10.0149
EURO	-10.015
▁REL	-10.0151
pe	-10.0152
▁deny	-10.0152
▁THIS	-10.0152
▁pick	-10.0152
▁fi	-10.0161
▁comp	-10.0163
▁gre	-10.0165
▁Let	-10.0167
▁harassed	-10.0168
▁hold	-10.0176
▁trie	-10.0176
cock	-10.0177
▁Test	-10.0178
trump	-10.0179
custom	-10.0181
▁happened	-10.0184
part	-10.0186
▁minutes	-10.0189
▁pussi	-10.0193
Should	-10.0195
53,	-10.0216
fi	-10.022
▁rent	-10.0224
She	-10.0226
Yw	-10.0235
81,	-10.0239
loaded	-10.0239
▁unlikely	-10.0244
land	-10.0245
▁knee	-10.0247
past	-10.0251
HR	-10.0252
9&	-10.0259
▁customers	-10.0264
GI	-10.0277
fv	-10.0278
▁Sexual	-10.0279
000	-10.0285
08,	-10.0285
ong	-10.0294
Cl	-10.0299
way	-10.0304
=8	-10.0313
tally	-10.0329
98	-10.0344
▁statement	-10.0347
lies	-10.0349
▁target	-10.0349
▁di	-10.0361
▁neck	-10.0364
da	-10.0366
▁coupons	-10.038
▁brewer	-10.039
▁includ	-10.0392
▁human	-10.0407
▁creep	-10.0413
mmmm	-10.043
▁lawsuits	-10.043
▁finger	-10.0433
▁taken	-10.0464
sep	-10.0471
72,	-10.0537
▁items	-10.054
pecifically	-10.0541
hreaten	-10.0541
BLE	-10.0543
▁horrible	-10.0544
▁Server	-10.0544
▁respond	-10.0544
Power	-10.0544
diction	-10.0544
▁authorities	-10.0544
30,	-10.0544
▁Freedom	-10.0545
▁laugh	-10.0545
deem	-10.0547
guess	-10.0547
adden	-10.0548
reston	-10.0548
▁refinancing	-10.0548
POT	-10.0555
tically	-10.0559
▁WA	-10.0574
56,	-10.0575
▁29	-10.0578
▁CON	-10.0585
eau	-10.0587
timate	-10.0587
▁mentioned	-10.0593
usable	-10.0596
ian	-10.06
▁daily	-10.0601
▁>	-10.0605
kr	-10.0607
BM	-10.0608
Sexual	-10.0609
doctor	-10.0612
Free	-10.0616
CID	-10.0617
▁42	-10.0618
▁websites	-10.0618
▁missed	-10.062
research	-10.0623
▁da	-10.0624
annon	-10.0631
episode	-10.0631
▁mone	-10.0635
▁Hi	-10.0639
▁original	-10.0655
hi	-10.067
▁key	-10.067
▁negotiat	-10.0674
83,	-10.0674
8&	-10.0683
EN	-10.0685
▁bot	-10.0708
▁UK	-10.0712
44,	-10.0717
08	-10.0724
▁reasons	-10.0729
▁du	-10.0733
graphics	-10.0739
▁cars	-10.074
▁Ho	-10.0741
▁player	-10.0764
cover	-10.0766
cb	-10.0776
▁week	-10.0813
IT	-10.082
▁represent	-10.0826
▁interest	-10.0846
0)	-10.0855
▁killed	-10.0868
▁complain	-10.0893
▁sleep	-10.0897
14,	-10.0898
▁stab	-10.0907
▁X	-10.0909
▁agree	-10.0924
Re	-10.0926
men	-10.0932
▁tool	-10.0932
rom	-10.0938
49,	-10.0945
▁trans	-10.0954
roject	-10.0955
jewelry	-10.096
sponsored	-10.096
▁process	-10.096
▁uncomfortable	-10.096
▁Paper	-10.096
CSGOPOT	-10.0961
▁neighbor	-10.0961
▁binding	-10.0961
arambit	-10.0961
aximo	-10.0961
wow	-10.0961
▁turn	-10.0961
▁poop	-10.0961
▁particular	-10.0961
kickstarter	-10.0961
▁Will	-10.0961
▁lung	-10.0962
▁college	-10.0962
ptions	-10.0962
▁popula	-10.0962
▁FAST	-10.0963
flexible	-10.0963
Xanax	-10.0963
▁grav	-10.0963
▁Girls	-10.0965
01&	-10.0965
▁cine	-10.0966
▁accused	-10.0966
▁ones	-10.0966
▁themselves	-10.0967
natalie	-10.0969
▁Fee	-10.0975
▁equi	-10.0988
▁boob	-10.0989
▁**[	-10.099
AFF	-10.0993
▁concerned	-10.0994
▁figure	-10.0996
uck	-10.0998
▁veh	-10.0998
war	-10.1002
▁receiv	-10.1007
rco	-10.101
▁audio	-10.1014
heating	-10.102
PROMO	-10.1027
SPA	-10.1031
mp	-10.1032
lawyer	-10.105
FPS	-10.1051
▁date	-10.1053
DF	-10.1056
rin	-10.1061
like	-10.1063
other	-10.1065
▁gui	-10.1071
▁recording	-10.1071
▁carrie	-10.1075
▁covers	-10.1079
▁escorts	-10.1081
▁fix	-10.1081
▁German	-10.1083
▁bor	-10.1091
jy	-10.1096
▁team	-10.1104
▁inter	-10.1106
▁Aust	-10.1107
▁kne	-10.1127
▁Well	-10.1145
87	-10.1149
▁rates	-10.1163
▁Mos	-10.1179
▁fail	-10.1182
tori	-10.1183
▁Un	-10.1183
RY	-10.119
▁rate	-10.119
bait	-10.12
▁theft	-10.1207
▁Have	-10.1208
▁trick	-10.1209
12,	-10.1217
▁load	-10.1218
jo	-10.1229
▁friends	-10.1258
uh	-10.1262
OO	-10.1279
▁Sk	-10.1281
▁donate	-10.1283
Then	-10.1288
ear	-10.129
mate	-10.1292
point	-10.1294
367	-10.1295
▁en	-10.1299
Mo	-10.1317
▁episode	-10.1326
ek	-10.1334
bi	-10.1336
product	-10.1338
pro	-10.1338
▁protest	-10.1344
ALI	-10.1344
▁mention	-10.1357
▁$5	-10.1357
▁Are	-10.1366
idden	-10.1387
▁Real	-10.1389
preferred	-10.1394
hillary	-10.1395
▁hospital	-10.1395
▁libel	-10.1395
▁Screen	-10.1395
▁nude	-10.1395
Jesus	-10.1395
Tips	-10.1395
ammer	-10.1395
latest	-10.1395
▁degrad	-10.1395
Wait	-10.1395
▁wrist	-10.1396
▁raise	-10.1396
▁prescription	-10.1399
▁liable	-10.1399
LOW	-10.14
stone	-10.1401
▁commission	-10.1401
▁American	-10.1401
▁California	-10.1404
▁CONC	-10.1405
▁harm	-10.1405
▁deba	-10.1406
▁reasonable	-10.1407
▁three	-10.1407
marketing	-10.1413
GS	-10.1416
▁Port	-10.1417
gue	-10.1419
ought	-10.142
OUS	-10.1423
▁useful	-10.1423
▁pirate	-10.1424
common	-10.1427
▁By	-10.1427
▁effectively	-10.1429
▁News	-10.143
8?	-10.1432
LEAS	-10.1434
cc	-10.1434
▁choice	-10.1435
ick	-10.1441
aying	-10.1449
▁windows	-10.145
▁legit	-10.1459
pment	-10.1462
▁sil	-10.1464
koh	-10.1466
lying	-10.1471
grade	-10.1471
Info	-10.1481
redd	-10.1482
discover	-10.1485
55,	-10.1495
▁Thu	-10.1495
Everyone	-10.15
09-	-10.1503
hotels	-10.1507
93,	-10.151
howto	-10.1512
unt	-10.1512
▁table	-10.1522
edia	-10.1527
▁hot	-10.1533
player	-10.1534
messed	-10.1535
Hear	-10.1539
IRT	-10.154
came	-10.1549
5436	-10.1556
justice	-10.1558
ride	-10.1561
Guys	-10.1576
▁po	-10.1586
▁FL	-10.1589
done	-10.1589
really	-10.1593
ww	-10.1601
▁fan	-10.1608
ck	-10.1617
▁grab	-10.1633
▁Th	-10.1637
ged	-10.1645
our	-10.1661
ard	-10.1668
▁QU	-10.1669
▁race	-10.1692
asically	-10.1696
26	-10.1697
▁En	-10.1713
gentl	-10.1726
▁exten	-10.1727
vn	-10.1731
▁investment	-10.1736
▁Ph	-10.1748
DA	-10.1757
cid	-10.1759
▁bi	-10.1763
▁swa	-10.1768
▁determin	-10.1771
1_	-10.1779
15,	-10.179
###	-10.1792
▁print	-10.1793
rage	-10.1799
Giv	-10.1811
Br	-10.1812
Mus	-10.1813
▁App	-10.1822
▁Per	-10.1825
▁create	-10.1825
anda	-10.183
avesexwithme	-10.1846
10399	-10.1847
Jewel	-10.185
undesliga	-10.185
Official	-10.185
arım	-10.185
boxCUBE	-10.185
corlu	-10.185
crack	-10.185
diamond	-10.185
siimov	-10.185
▁Regardless	-10.185
▁definition	-10.185
▁scammed	-10.185
russia	-10.185
▁dumbass	-10.185
▁double	-10.185
Wow	-10.185
▁phras	-10.185
▁counsel	-10.185
mafia	-10.185
▁salespeople	-10.185
▁North	-10.185
churn	-10.185
Cool	-10.185
medium	-10.185
▁penn	-10.1851
▁Nobody	-10.1851
glad	-10.1851
▁border	-10.1851
▁violence	-10.1851
arena	-10.1851
▁kiss	-10.1851
▁president	-10.1852
▁grow	-10.1852
▁pat	-10.1853
▁Cover	-10.1853
▁along	-10.1854
▁Dick	-10.1855
▁discre	-10.1856
▁felony	-10.186
▁consumer	-10.1861
rink	-10.1862
▁repea	-10.1865
acor	-10.187
▁$100	-10.1873
▁High	-10.1875
▁grey	-10.1877
oot	-10.1887
arsenal	-10.1889
▁consi	-10.189
gif	-10.1891
attress	-10.1897
meds	-10.1919
▁Kai	-10.1921
▁simple	-10.1922
▁Gi	-10.1922
▁pu	-10.1924
▁university	-10.1926
Sn	-10.1936
kh	-10.1938
▁ni	-10.1941
▁building	-10.1942
ances	-10.1942
swagb	-10.1952
6&	-10.1952
cum	-10.1955
record	-10.1977
oon	-10.1977
amazing	-10.1979
▁hol	-10.1986
more	-10.1993
BW	-10.2008
where	-10.2011
lc	-10.2017
nba	-10.2021
BC	-10.2021
dv	-10.2026
▁deposit	-10.2027
▁lol	-10.2028
09	-10.2034
IC	-10.2044
▁mon	-10.2054
ERO	-10.2056
ely	-10.2061
▁god	-10.2063
RE	-10.2065
unday	-10.207
▁cases	-10.2072
▁alcohol	-10.2078
▁22	-10.2087
br	-10.2095
Du	-10.2097
▁torrents	-10.2101
nty	-10.2101
▁status	-10.2101
mac	-10.2102
▁|[	-10.2108
▁weight	-10.211
▁program	-10.2114
▁project	-10.2124
ROAD	-10.2171
ently	-10.2175
An	-10.2193
athletic	-10.2195
AY	-10.2196
▁discuss	-10.2199
aylor	-10.2201
mid	-10.2208
▁fee	-10.2229
923	-10.2235
ence	-10.226
0000	-10.2261
source	-10.227
Cu	-10.2275
▁TE	-10.2278
ka	-10.2287
OTH	-10.2296
pisode	-10.2298
nsurance	-10.2306
▁injur	-10.2306
▁typ	-10.2312
graph	-10.2316
LU	-10.2323
iddlesbrough	-10.2326
▁Consider	-10.2326
▁choose	-10.2326
▁disappear	-10.2326
▁jeopard	-10.2326
▁location	-10.2326
▁Price	-10.2326
▁present	-10.2326
▁himself	-10.2326
▁appoint	-10.2326
plifting	-10.2326
raising	-10.2326
▁employee	-10.2326
cmpr	-10.2326
=1526	-10.2327
▁adjust	-10.2328
▁innocent	-10.2328
▁Mu	-10.2328
▁office	-10.233
truck	-10.233
▁therefore	-10.2332
chelsea	-10.2333
OLL	-10.2333
▁successfully	-10.2337
hame	-10.2338
▁jur	-10.234
▁Uni	-10.2341
▁traffick	-10.2341
XQ	-10.2344
flip	-10.2352
▁gain	-10.2355
▁qualifie	-10.2358
▁invite	-10.236
▁$150	-10.2365
▁Seriously	-10.237
archi	-10.2374
▁abuser	-10.2384
▁Talk	-10.2388
▁plat	-10.2393
ities	-10.2403
▁career	-10.2409
▁Of	-10.241
band	-10.2421
tely	-10.2427
77,	-10.2433
OI	-10.2444
vi	-10.2444
▁collection	-10.2458
▁function	-10.2459
HERE	-10.2474
IZ	-10.2481
▁............	-10.2483
join	-10.2484
chi	-10.25
Cal	-10.2505
ffice	-10.2508
▁desire	-10.2509
zu	-10.252
rs	-10.254
▁Hey	-10.2548
kir	-10.255
▁See	-10.2555
ade	-10.2557
bbing	-10.2563
charger	-10.2565
RI	-10.2573
▁released	-10.2574
easy	-10.258
ph	-10.2583
▁Use	-10.2594
▁John	-10.2602
▁Save	-10.2616
te	-10.2619
earch	-10.2622
▁pill	-10.2623
▁option	-10.2625
IQ	-10.2633
ages	-10.2638
90,	-10.2651
nk	-10.2655
search	-10.2655
▁ads	-10.266
/12	-10.2662
6,">	-10.2669
ayı	-10.268
▁gott	-10.2691
wnload	-10.2698
HF	-10.2714
Guy	-10.2724
rm	-10.2729
lag	-10.2734
▁came	-10.2735
girl	-10.2738
▁Ne	-10.2748
rman	-10.2756
=4	-10.2768
▁!!!	-10.2768
1,">	-10.2778
▁tak	-10.2789
taci	-10.2792
0%	-10.2794
EX	-10.281
ivil	-10.2815
helsea	-10.2819
77.	-10.282
whaff	-10.2826
Seattle	-10.2826
Viagra	-10.2826
character	-10.2826
lounge	-10.2826
tyrande	-10.2826
▁Fiverr	-10.2826
▁challenge	-10.2826
▁enhance	-10.2826
Type	-10.2826
▁surger	-10.2826
▁motivat	-10.2826
jack	-10.2826
tank	-10.2826
▁bottle	-10.2826
▁basement	-10.2826
Click	-10.2827
▁charit	-10.2827
▁release	-10.2827
▁enforcement	-10.2827
▁Poly	-10.2827
▁cross	-10.2827
▁slow	-10.2828
split	-10.2828
PRET	-10.2829
▁paternity	-10.2829
sahd	-10.283
▁tho	-10.283
ipping	-10.283
▁references	-10.283
/2016/10/	-10.2831
csgo	-10.2831
▁previously	-10.2832
▁subreddit	-10.2833
▁$7	-10.2833
▁TELL	-10.2835
▁half	-10.2836
▁stranger	-10.2837
▁WHI	-10.2839
ADE	-10.2839
Simple	-10.2839
NES	-10.284
jum	-10.2841
▁generat	-10.2841
ike	-10.2843
HQ	-10.2844
ageants	-10.2854
▁dr	-10.2854
depression	-10.2856
exit	-10.2856
categor	-10.2858
▁de	-10.2859
####	-10.286
▁invita	-10.2862
TH	-10.2865
gener	-10.2869
nudist	-10.287
▁however	-10.2872
ility	-10.2873
jw	-10.2874
tract	-10.288
Database	-10.2892
▁ten	-10.2895
▁rows	-10.2896
▁IN	-10.2902
▁FT	-10.2911
▁complaint	-10.2913
▁taste	-10.2918
ppy	-10.2929
0"	-10.2929
alace	-10.2932
▁worker	-10.2938
▁booked	-10.2942
▁Gra	-10.2945
▁hate	-10.2946
▁Twe	-10.2946
lor	-10.2947
▁town	-10.2952
▁roo	-10.2965
▁Bank	-10.2966
CER	-10.2969
▁prostituti	-10.2974
anas	-10.2975
campaign	-10.2992
projects	-10.2999
human	-10.3001
Although	-10.3001
jailbreak	-10.3002
regular	-10.3002
health	-10.3005
List	-10.3006
bonus	-10.3009
network	-10.301
▁others	-10.3013
fie	-10.3021
rd	-10.3021
super	-10.3031
▁log	-10.3042
4,[	-10.3049
have	-10.3057
▁rep	-10.3067
▁match	-10.3076
nine	-10.3078
://3	-10.3091
Complete	-10.3092
ddl	-10.3097
▁cheap	-10.3102
▁prob	-10.3116
rown	-10.3119
op	-10.3122
ats	-10.3136
▁center	-10.314
public	-10.3142
▁HE	-10.3153
▁COP	-10.3154
awa	-10.3157
BT	-10.3168
▁happen	-10.3187
OP	-10.3193
wt	-10.3195
▁unbo	-10.322
round	-10.3227
tight	-10.3229
▁drugs	-10.3251
==	-10.3251
brea	-10.3258
▁lists	-10.3259
ure	-10.3262
ILL	-10.3271
race	-10.3277
ina	-10.3283
▁prohibit	-10.3284
ey	-10.3284
Qo	-10.329
▁sy	-10.3297
zle	-10.3303
365	-10.3308
one	-10.3311
NO	-10.332
▁replace	-10.3322
america	-10.3334
osports	-10.3351
▁Second	-10.3352
Honestly	-10.3352
favour	-10.3352
recruit	-10.3352
▁middle	-10.3352
▁potential	-10.3352
▁period	-10.3352
▁sudden	-10.3352
fficient	-10.3352
▁Visit	-10.3352
▁folk	-10.3352
▁runner	-10.3352
▁attach	-10.3353
▁animal	-10.3353
▁GIVE	-10.3353
Sanders	-10.3353
▁prosecutor	-10.3353
▁current	-10.3353
▁exist	-10.3353
▁peaceful	-10.3354
▁teacher	-10.3354
▁United	-10.3354
▁thu	-10.3355
▁driver	-10.3355
/1000	-10.3356
▁clearance	-10.3356
▁imagine	-10.3356
▁fake	-10.3356
▁cyberk	-10.3358
▁initia	-10.3359
▁general	-10.3362
▁underage	-10.3362
Nice	-10.3363
rated	-10.3364
▁Pop	-10.3365
▁May	-10.3365
0.00	-10.3366
master	-10.3369
-6-	-10.3369
▁contractors	-10.337
Language	-10.337
cycl	-10.3379
julia	-10.338
early	-10.3381
▁discount	-10.3386
▁cable	-10.3388
ena	-10.3388
▁liv	-10.3389
ALL	-10.3391
ument	-10.3394
▁Sure	-10.3396
▁secure	-10.3401
▁art	-10.3403
▁projects	-10.3405
▁agreed	-10.3408
▁mans	-10.3408
▁HA	-10.3412
▁hours	-10.3415
pare	-10.3421
486	-10.343
▁WANT	-10.3431
▁min	-10.3435
temple	-10.3435
▁Spanish	-10.3442
▁Jud	-10.3442
_7	-10.345
BU	-10.3455
fle	-10.3456
tard	-10.3465
unglasses	-10.3468
▁len	-10.3468
▁li	-10.347
ios	-10.3473
HB	-10.3493
▁Report	-10.3497
ou	-10.3502
series	-10.3505
▁max	-10.3506
▁000	-10.351
▁shop	-10.3514
rw	-10.3516
▁sl	-10.3522
.*	-10.3526
57	-10.3532
Bad	-10.3533
pack	-10.3535
27	-10.3541
cup	-10.3549
Thanks	-10.3562
dollars	-10.3562
Code	-10.3563
house	-10.3563
content	-10.3563
Who	-10.3565
ass	-10.3565
abortion	-10.3568
1568	-10.357
True	-10.3573
pass	-10.3576
hacker	-10.3583
▁Her	-10.3591
party	-10.3593
▁devices	-10.3593
match	-10.3598
sured	-10.3598
▁si	-10.3601
-2-	-10.3617
tw	-10.3618
oil	-10.3619
▁active	-10.3628
▁BE	-10.3644
FO	-10.3659
▁bucks	-10.3663
Boo	-10.3665
ancy	-10.3672
▁sal	-10.3674
roof	-10.3677
tern	-10.368
ok	-10.3693
▁onto	-10.3699
▁Did	-10.3706
Are	-10.3731
▁carr	-10.3732
actions	-10.3737
ews	-10.3744
orn	-10.3745
▁lease	-10.3749
bp	-10.3763
▁result	-10.3768
bond	-10.3769
▁Tel	-10.3769
▁cause	-10.3773
fd	-10.3779
il	-10.3782
8,">	-10.3784
nol	-10.3791
▁join	-10.38
bf	-10.3801
OVE	-10.3814
aid	-10.3822
▁DA	-10.3852
iam	-10.3856
▁necess	-10.386
▁Sal	-10.3865
win	-10.3884
▁technical	-10.3887
▁Hav	-10.3891
13	-10.3895
ooo	-10.3906
tivities	-10.3907
/9960/	-10.3908
LOLGA	-10.3908
wansea	-10.3908
woop	-10.3908
▁Experience	-10.3908
▁PayPal	-10.3908
▁agencies	-10.3908
▁coincidence	-10.3908
▁discriminat	-10.3908
▁execution	-10.3908
▁genocide	-10.3908
▁material	-10.3908
▁obligation	-10.3908
▁ridiculous	-10.3908
▁trouble	-10.3908
▁concealed	-10.3908
▁bridge	-10.3908
▁average	-10.3908
▁condom	-10.3908
kbps	-10.3908
▁death	-10.3908
ustria	-10.3908
▁erection	-10.3908
▁commie	-10.3909
echo	-10.3909
Prag	-10.3909
▁guarantee	-10.3909
▁otherwise	-10.3909
random	-10.3909
▁-------	-10.3911
Remember	-10.3911
quiz	-10.3911
▁excuse	-10.3912
gimm	-10.3913
redirect	-10.3914
59	-10.3915
▁bud	-10.3915
▁10/10	-10.3916
celand	-10.3919
▁level	-10.392
▁group	-10.392
▁VER	-10.3924
dule	-10.3925
golden	-10.3927
▁Anyway	-10.3927
bang	-10.3929
21-	-10.3932
action	-10.3939
OU	-10.3942
ison	-10.3943
▁moral	-10.395
5134	-10.3953
4846	-10.3959
APP	-10.3961
▁id	-10.3964
ol	-10.3965
▁king	-10.3968
lmen	-10.3969
▁Hel	-10.3975
▁FIL	-10.3978
▁happening	-10.3978
ajo	-10.398
auth	-10.3984
▁dic	-10.3986
▁USE	-10.3988
▁annu	-10.3992
▁register	-10.4001
▁clean	-10.4003
iron	-10.4004
▁wise	-10.4005
png	-10.4017
sche	-10.4019
AVI	-10.4019
ET	-10.4019
bend	-10.4023
mm	-10.4026
meaning	-10.4042
▁dealing	-10.4043
ave	-10.4044
▁inforced	-10.4045
hat	-10.4046
src	-10.4048
20.	-10.4049
▁legi	-10.4053
rx	-10.4056
cg	-10.4078
usin	-10.4079
sli	-10.4084
Shit	-10.4085
Va	-10.4094
▁assholes	-10.4096
rJ	-10.4102
heart	-10.4106
CC	-10.411
tation	-10.412
▁dri	-10.4123
application	-10.4126
As	-10.4135
ie	-10.4137
rove	-10.4142
90	-10.4143
Shop	-10.4144
phone	-10.4146
roll	-10.4147
▁yeah	-10.4148
security	-10.415
which	-10.4156
span	-10.4162
gray	-10.4165
unfi	-10.4169
85	-10.4176
▁Wom	-10.4183
▁Channel	-10.4191
stay	-10.4192
....	-10.4217
▁dope	-10.4221
rid	-10.4225
▁experts	-10.4232
▁bon	-10.4236
ny	-10.4238
sound	-10.4243
▁attack	-10.4248
nch	-10.4252
▁mu	-10.4266
Im	-10.427
manda	-10.4276
AL	-10.4278
review	-10.428
▁film	-10.4287
▁manufactur	-10.4313
tri	-10.4319
▁apply	-10.4343
pk	-10.4363
rn	-10.4372
vailable	-10.4374
pin	-10.4402
ask	-10.4408
kitt	-10.441
fucker	-10.4424
▁restrain	-10.4432
itated	-10.4442
▁mar	-10.4443
▁pirat	-10.4457
▁Personal	-10.4464
▁warn	-10.448
▁notic	-10.4485
short	-10.4493
signature	-10.4496
▁Customers	-10.4496
▁difference	-10.4496
▁duplicate	-10.4496
▁misdemeanor	-10.4496
▁perspective	-10.4496
▁recognize	-10.4496
▁repercussions	-10.4496
▁matter	-10.4496
▁neighbour	-10.4496
official	-10.4496
▁revoked	-10.4496
patreon	-10.4496
▁visa	-10.4496
▁untrue	-10.4496
▁slam	-10.4496
hief	-10.4496
MENT	-10.4497
▁whatsapp	-10.4497
▁Pain	-10.4497
▁begging	-10.4497
▁piratebay	-10.4497
▁park	-10.4497
▁compan	-10.4498
▁Bush	-10.4498
▁probation	-10.4498
▁optic	-10.4499
=1532	-10.4499
▁retai	-10.4499
alara	-10.4499
ederal	-10.45
▁Flo	-10.45
▁sink	-10.4501
egligence	-10.4501
▁package	-10.4502
ankruptcy	-10.4502
▁terrorists	-10.4503
zge	-10.4504
lo	-10.4505
hello	-10.4506
stol	-10.4506
▁Z	-10.4506
▁arm	-10.4509
▁scan	-10.451
chan	-10.4514
ufc	-10.4518
500	-10.4519
▁Ra	-10.4522
▁(48	-10.4523
mad	-10.4525
sad	-10.4526
14229	-10.4527
native	-10.4531
JX	-10.4531
trick	-10.4536
tures	-10.4543
man	-10.4543
▁Bay	-10.4545
gj	-10.4545
muffin	-10.4548
gic	-10.4554
▁Ch	-10.4556
$.	-10.4556
liber	-10.4561
uma	-10.4564
TM	-10.4565
lv	-10.4567
oline	-10.4568
nsom	-10.4568
▁bare	-10.4571
=17	-10.4571
LO	-10.4575
ange	-10.458
▁;)	-10.4581
▁abso	-10.4588
-20	-10.459
ownload	-10.4593
VP	-10.4598
Sound	-10.46
▁Dis	-10.4606
udi	-10.4613
▁fat	-10.4614
4,">	-10.4616
rg	-10.4622
▁wire	-10.4627
ARE	-10.463
text	-10.4636
uce	-10.4644
wam	-10.4655
▁pose	-10.4656
serve	-10.4659
▁action	-10.4666
codi	-10.4675
▁$	-10.4679
▁hook	-10.4681
▁basic	-10.4702
Su	-10.4714
▁host	-10.4725
omeone	-10.4739
cap	-10.4741
onsultation	-10.4747
▁prize	-10.4755
Da	-10.4757
cyber	-10.4759
accounts	-10.4764
John	-10.4768
State	-10.4768
CK	-10.4768
mobile	-10.4768
neck	-10.477
cards	-10.4771
return	-10.4774
let	-10.4774
With	-10.4774
▁collect	-10.4775
issue	-10.4776
when	-10.4776
crime	-10.4777
protect	-10.4783
Save	-10.4784
law	-10.4793
More	-10.4796
▁explain	-10.4797
item	-10.4798
▁wish	-10.4801
lip	-10.4802
lid	-10.4817
IW	-10.4822
▁cl	-10.4826
▁metal	-10.483
nes	-10.4833
ppl	-10.4834
▁0,	-10.4841
5)	-10.4841
▁invest	-10.4853
▁abus	-10.4855
▁Trea	-10.486
affair	-10.4865
▁Da	-10.4868
▁Shop	-10.4871
ym	-10.4875
di	-10.4878
kar	-10.488
▁skin	-10.4881
dose	-10.4889
ved	-10.4898
▁blog	-10.4903
▁red	-10.4908
▁benefit	-10.491
ext	-10.4911
▁asshole	-10.4913
nce	-10.4918
ations	-10.4929
ustin	-10.4931
earl	-10.4936
TF	-10.4937
▁ca	-10.494
▁WW	-10.4949
uffy	-10.4949
ublic	-10.4954
-12	-10.4959
▁Pos	-10.4979
▁loss	-10.4979
▁partner	-10.4989
???	-10.4993
KV	-10.5001
▁ch	-10.5001
▁costs	-10.5001
0,[	-10.5004
340	-10.5004
▁gen	-10.5011
sid	-10.5016
AD	-10.5021
ORE	-10.5053
▁st	-10.5055
▁La	-10.506
plica	-10.5061
reat	-10.5064
▁intoxicat	-10.5066
ithdraw	-10.5071
icle	-10.5073
▁stabb	-10.5078
inancing	-10.5084
▁bra	-10.5091
hyp	-10.5096
▁circu	-10.5098
escap	-10.5102
mol	-10.5103
Now	-10.5108
▁thank	-10.511
nderstanding	-10.5111
-200	-10.5115
Girl	-10.5116
olice	-10.5117
13782	-10.5119
efinitely	-10.5119
rescription	-10.5119
uarantee	-10.512
unfortunate	-10.512
Charg	-10.5121
krai	-10.5121
igure	-10.5121
rabbit	-10.5121
ambiguous	-10.5121
levitra	-10.5121
▁objecti	-10.5121
-2014-	-10.5121
Wheels	-10.5121
Wrong	-10.5121
▁Texas	-10.5121
▁consequences	-10.5121
▁incident	-10.5121
Lahore	-10.5121
=35	-10.5121
▁department	-10.5121
▁normal	-10.5121
ortab	-10.5121
▁bullshit	-10.5121
champion	-10.5121
▁unconscious	-10.5121
▁subpoena	-10.5121
▁above	-10.5121
▁grand	-10.5121
▁tweet	-10.5121
▁submitted	-10.5121
▁initially	-10.5122
▁acqui	-10.5122
▁kitty	-10.5122
itch	-10.5122
downloadmore	-10.5122
LESS	-10.5123
▁$1,000	-10.5123
osha	-10.5123
▁casual	-10.5123
aptop	-10.5123
▁hair	-10.5123
ondora	-10.5124
hotspur	-10.5124
▁exchange	-10.5124
egotia	-10.5124
▁Dutch	-10.5124
▁RACE	-10.5125
▁backlash	-10.5126
54-	-10.5126
Hahahaha	-10.5129
mAh	-10.5131
▁extreme	-10.5134
▁Other	-10.5136
dox	-10.5136
ccessories	-10.5139
rwi	-10.5142
▁Coins	-10.5142
Out	-10.5142
THREA	-10.5143
▁GOD	-10.5148
▁Kni	-10.515
rewards	-10.5152
hich	-10.5154
Personally	-10.5156
head	-10.5156
▁FYI	-10.5157
lQ	-10.5157
▁tickets	-10.5158
tments	-10.5166
meo	-10.5174
▁hop	-10.5174
salary	-10.5175
▁18,	-10.5176
▁awesome	-10.518
uthori	-10.5182
UFC	-10.5182
▁restraining	-10.5192
Tour	-10.5195
▁SUP	-10.5196
cul	-10.52
ipa	-10.5202
▁understa	-10.5203
▁Acc	-10.5203
rust	-10.5205
▁truth	-10.5207
Um	-10.5207
▁youtube	-10.5215
send	-10.5216
Ek	-10.5218
AM	-10.5218
lvi	-10.522
epression	-10.522
Al	-10.5221
own	-10.5222
DIA	-10.5224
builds	-10.5225
ari	-10.5229
mandate	-10.5232
93	-10.5238
▁hy	-10.5239
PRO	-10.5253
▁cam	-10.5256
iolence	-10.5256
▁closed	-10.5261
camp	-10.5261
▁MG	-10.5266
istic	-10.5271
kt	-10.5273
▁scream	-10.5274
▁bar	-10.528
LK	-10.5283
▁hor	-10.5286
▁square	-10.5287
kik	-10.5288
▁bombs	-10.5293
▁RE	-10.5294
▁sala	-10.5296
Baylor	-10.5296
5858	-10.5298
kW	-10.5298
Aw	-10.5303
EXTE	-10.5313
▁retarded	-10.5314
IV	-10.5324
5?	-10.5325
▁CLAS	-10.5334
7,[	-10.5349
tton	-10.5358
$	-10.5358
being	-10.5358
▁jobs	-10.5369
hy	-10.537
02.	-10.5372
herb	-10.5375
esc	-10.5375
▁PD	-10.5389
support	-10.539
tall	-10.539
▁meme	-10.5397
44	-10.5403
▁Lo	-10.5413
rank	-10.5416
▁Twitter	-10.5418
honest	-10.5424
Conve	-10.5426
Law	-10.5431
giveaway	-10.5431
weight	-10.5433
metal	-10.5434
parent	-10.5436
target	-10.5436
thanks	-10.5437
Would	-10.5439
Have	-10.544
▁cs	-10.5442
will	-10.545
creeper	-10.5452
ragi	-10.5458
row	-10.546
Ray	-10.5461
▁giveaway	-10.5466
▁BO	-10.5472
▁fr	-10.5474
▁58	-10.5474
OS	-10.5479
Late	-10.5482
alone	-10.5483
technology	-10.5486
ite	-10.549
uru	-10.5502
PM	-10.551
▁Late	-10.5521
prop	-10.5534
use	-10.5541
laces	-10.5541
therhood	-10.5565
▁network	-10.5567
0,">	-10.5567
$25	-10.5574
▁star	-10.5576
fini	-10.5576
oning	-10.5579
nim	-10.558
occer	-10.5585
▁employer	-10.5588
▁customer	-10.5589
▁1080	-10.5592
▁Every	-10.5608
Sb	-10.5611
bear	-10.5628
▁eats	-10.5632
64	-10.5634
2017	-10.5634
▁city	-10.5636
CT	-10.5637
▁decid	-10.5638
▁Pi	-10.5639
pad	-10.5647
▁fines	-10.5647
▁insu	-10.5648
▁boo	-10.5651
5,">	-10.5653
mer	-10.5654
▁factor	-10.5661
detect	-10.5662
mendment	-10.5665
▁involv	-10.5683
▁electr	-10.5684
cet	-10.5684
erall	-10.5689
ci	-10.5691
VE	-10.5696
oph	-10.5698
34	-10.5716
1540	-10.5716
erception	-10.572
2917	-10.5721
▁patien	-10.5721
andcuffs	-10.5726
Bro	-10.5728
how	-10.5733
▁concern	-10.5735
▁CO	-10.5735
▁magic	-10.5737
▁land	-10.5741
utions	-10.5745
cle	-10.5746
irect	-10.5749
▁bother	-10.5755
obi	-10.5759
points	-10.576
▁eventu	-10.5764
▁sou	-10.5765
adrid	-10.5767
▁Del	-10.5773
▁top	-10.5777
hey	-10.5783
▁abs	-10.5785
-200002-	-10.5786
raudulent	-10.5786
--->>>	-10.5787
inutes	-10.5787
BXderAB	-10.5788
Politic	-10.5788
Portugal	-10.5788
▁error	-10.5788
▁granted	-10.5788
Lmao	-10.5788
▁criticism	-10.5788
▁participate	-10.5788
ODE	-10.5788
▁morning	-10.5788
▁concept	-10.5788
tripped	-10.5788
-2012-	-10.5788
▁fool	-10.5788
▁vehicle	-10.5788
ummer	-10.5788
▁religion	-10.5789
porto	-10.5789
---|---	-10.5789
▁statute	-10.5789
flu	-10.5789
▁brig	-10.5789
▁install	-10.5789
Ayy	-10.5789
Dude	-10.5789
▁underwear	-10.5789
▁itself	-10.579
english	-10.579
kept	-10.579
india	-10.5791
▁aggressi	-10.5794
▁vary	-10.5795
Life	-10.5795
nmar	-10.5797
panty	-10.5799
urd	-10.5799
▁CPA	-10.5799
▁sick	-10.5799
▁honestly	-10.58
kely	-10.58
=53	-10.5801
▁Clinton	-10.5802
▁sibling	-10.5802
▁COME	-10.5802
/2016/1	-10.5802
▁execute	-10.5805
artisan	-10.5807
▁wondering	-10.5808
asion	-10.5812
ev	-10.5812
lous	-10.5813
▁Fuckin	-10.5816
ribe	-10.5821
▁forgot	-10.5822
▁edit	-10.5824
▁notification	-10.5825
trading	-10.5826
▁discharge	-10.5826
▁Day	-10.5827
▁grat	-10.5827
cav	-10.583
▁diss	-10.5834
▁forward	-10.5836
eceive	-10.5837
ise	-10.5842
der	-10.5844
▁Christ	-10.5851
622	-10.5851
▁opt	-10.5853
crew	-10.586
ACT	-10.586
hrow	-10.5861
oga	-10.5862
AG	-10.5867
052	-10.5869
enth	-10.5874
/16	-10.5874
lending	-10.5877
patterns	-10.5883
1,[	-10.5884
ety	-10.5886
▁applie	-10.589
ep	-10.5892
_14	-10.5898
bie	-10.5899
▁peace	-10.5899
akin	-10.59
notes	-10.5901
▁Kick	-10.5903
slot	-10.5904
Philadelphia	-10.5907
▁Lam	-10.5912
xl	-10.5913
▁spot	-10.5914
loan	-10.5916
▁explo	-10.5916
▁served	-10.5918
iams	-10.592
▁whatever	-10.5925
Name	-10.5926
lead	-10.5934
igo	-10.5934
▁fully	-10.5934
▁ran	-10.5937
cx	-10.5943
▁honor	-10.5948
je	-10.5949
fits	-10.595
xu	-10.5952
▁married	-10.5952
▁system	-10.5952
tL	-10.5956
logi	-10.5959
Fs	-10.5972
tate	-10.5972
▁fired	-10.5979
▁cigarette	-10.5979
▁professional	-10.5982
Go	-10.5982
▁mist	-10.5992
9444	-10.5994
▁twi	-10.5994
▁ED	-10.5995
Ll	-10.5998
▁rid	-10.5999
ese	-10.5999
▁employers	-10.6004
▁rec	-10.6004
ured	-10.6014
4291	-10.6015
HY	-10.6018
film	-10.6023
base	-10.6023
Vir	-10.6034
esign	-10.6035
▁J	-10.6036
▁str	-10.6056
ung	-10.6064
stable	-10.6072
▁pa	-10.6077
▁Ber	-10.6078
cd	-10.6083
inds	-10.6088
▁comments	-10.6104
▁tenant	-10.6108
CG	-10.6109
2@	-10.6122
defin	-10.6123
active	-10.613
streams	-10.6131
edy	-10.6133
yan	-10.6134
slap	-10.6139
collect	-10.6143
explain	-10.6146
Channel	-10.6147
alcohol	-10.6149
power	-10.6154
Pro	-10.6156
change	-10.6157
▁technology	-10.6158
find	-10.6159
wish	-10.6167
rare	-10.6168
roo	-10.6172
▁op	-10.6173
nx	-10.6173
acher	-10.6173
young	-10.6176
▁gold	-10.6183
omedy	-10.6207
llow	-10.6234
rec	-10.6245
hu	-10.6247
▁facebook	-10.6253
Some	-10.6264
alo	-10.6268
6000	-10.6274
pran	-10.6295
▁movies	-10.6298
▁client	-10.6298
▁graphic	-10.6306
▁mil	-10.6308
VI	-10.6309
▁occur	-10.631
Did	-10.6317
seek	-10.6317
DER	-10.6318
mo	-10.6329
thma	-10.6329
PC	-10.6346
pan	-10.6348
FB	-10.6351
▁800	-10.6358
-11	-10.6364
elio	-10.6381
56	-10.6382
IOT	-10.6383
SPORT	-10.639
3,">	-10.6392
vo	-10.64
3,[	-10.6402
IG	-10.6402
reaking	-10.6405
▁checking	-10.6416
older	-10.6419
▁23,	-10.642
▁inf	-10.6428
▁pregnan	-10.6435
ECT	-10.6442
▁Glob	-10.6447
▁Aug	-10.6451
equ	-10.6454
Ju	-10.6455
evil	-10.646
art	-10.6464
Bot	-10.6474
▁las	-10.6484
▁constitution	-10.6484
▁squa	-10.6487
!**	-10.6488
▁employ	-10.6488
athlete	-10.6495
pag	-10.6495
▁Canad	-10.6497
TIL	-10.6498
egends	-10.6498
EAT	-10.65
▁white	-10.6501
ackmanworks	-10.6502
porch	-10.6502
season	-10.6502
▁confidential	-10.6502
/2017/01/26/	-10.6502
uccifer	-10.6502
▁Illinois	-10.6502
Russian	-10.6502
Weaksauce	-10.6502
▁crosswalk	-10.6502
▁illness	-10.6502
Keep	-10.6502
▁cheer	-10.6502
▁excit	-10.6502
monstr	-10.6503
carpet	-10.6503
▁ownership	-10.6503
▁running	-10.6503
ilton	-10.6503
▁interess	-10.6503
▁swing	-10.6503
▁worst	-10.6503
▁yrs	-10.6504
▁Denmark	-10.6504
▁UNDER	-10.6504
undr	-10.6505
ennis	-10.6505
pire	-10.6505
gems	-10.6506
categories	-10.6506
▁200	-10.6506
ebate	-10.6507
bitcoinker	-10.6507
-2017/	-10.6507
ably	-10.6507
ysteri	-10.6508
▁somehow	-10.651
ickets	-10.6512
guest	-10.6512
▁War	-10.6512
cdg	-10.6513
▁India	-10.6514
EAR	-10.6514
Research	-10.6516
▁chill	-10.6517
▁solid	-10.6518
ads	-10.6521
nitch	-10.6526
KH	-10.6531
tbur	-10.6531
-2002	-10.6532
UST	-10.6535
▁Ja	-10.6535
▁Allow	-10.6535
▁cloth	-10.6535
JK	-10.6536
mila	-10.6537
▁sha	-10.6538
cele	-10.6539
▁Store	-10.6543
_73	-10.6545
gency	-10.6551
3267	-10.6551
soundcloud	-10.6557
ollow	-10.6559
▁payment	-10.6564
▁plans	-10.6569
heads	-10.6571
itizens	-10.6578
ination	-10.6581
▁IP	-10.6581
ERS	-10.6583
BTC	-10.6584
23-	-10.6587
KL	-10.6588
atre	-10.6591
resses	-10.6596
odo	-10.6596
ICK	-10.6597
OWN	-10.6599
▁advis	-10.6611
HING	-10.6612
▁settl	-10.6612
Mb	-10.6618
▁Cinc	-10.6618
ately	-10.662
efect	-10.6624
PIS	-10.6624
KB	-10.6625
riz	-10.6639
▁fel	-10.6641
2176	-10.6643
rest	-10.6643
▁risky	-10.6647
▁user	-10.6649
▁Market	-10.6652
▁Work	-10.6652
▁Me	-10.6654
▁nobody	-10.6655
gri	-10.6656
▁bear	-10.666
▁forgiven	-10.6665
hio	-10.6668
AR	-10.6683
nade	-10.6684
rash	-10.6685
▁Though	-10.6686
axi	-10.6695
▁drinks	-10.6698
▁720	-10.6698
IX	-10.67
track	-10.6703
ngle	-10.6716
▁Cel	-10.6717
ust	-10.6717
Tm	-10.672
bama	-10.6723
hg	-10.6727
name	-10.6728
nev	-10.6728
▁sky	-10.6734
gifts	-10.674
Id	-10.6742
8884	-10.6746
file	-10.6748
amps	-10.6752
6,[	-10.6752
mine	-10.6753
ags	-10.6755
Ban	-10.6764
az	-10.6767
▁hacking	-10.677
vC	-10.6787
pa	-10.6796
▁Put	-10.6815
▁Since	-10.6822
19	-10.6828
▁$0.	-10.6835
▁Sun	-10.6842
NG	-10.6866
income	-10.6878
.00	-10.6883
nY	-10.6889
asy	-10.6894
▁lived	-10.6899
hay	-10.6901
▁countr	-10.6902
nts	-10.6907
leach	-10.6914
Twitter	-10.6915
tenant	-10.6918
driving	-10.692
hx	-10.692
black	-10.6921
See	-10.6924
safety	-10.6924
certain	-10.6924
threat	-10.6926
food	-10.6932
pw	-10.6933
▁violat	-10.6935
risk	-10.6938
▁sli	-10.694
tually	-10.6947
trangely	-10.695
5037	-10.695
rape	-10.6952
NT	-10.6956
▁Ads	-10.6966
ja	-10.6969
went	-10.6982
▁purposes	-10.6994
mma	-10.7003
Pass	-10.7009
TR	-10.701
""?	-10.7013
▁non	-10.7016
Tor	-10.7022
sort	-10.703
▁text	-10.7044
=2	-10.7049
ict	-10.7055
yourl	-10.7056
▁toward	-10.706
▁bomb	-10.7062
)*	-10.7066
rod	-10.7067
hip	-10.707
▁Lists	-10.7071
ki	-10.7077
▁ba	-10.7088
arez	-10.7106
owing	-10.7112
▁tast	-10.713
▁pm	-10.713
nb	-10.7133
BS	-10.7138
bad	-10.7141
mitt	-10.7142
▁Doe	-10.7142
YE	-10.7152
cally	-10.716
▁mothers	-10.7161
ngry	-10.7163
▁topic	-10.7166
STAN	-10.7174
2995	-10.7175
arms	-10.7177
241	-10.7185
pena	-10.7193
atabase	-10.7207
▁Us	-10.721
ra	-10.7228
lt	-10.7229
set	-10.7232
AST	-10.7232
Lo	-10.7232
*"	-10.7236
nual	-10.7238
fb	-10.724
▁priv	-10.7244
ME	-10.7246
▁ST	-10.725
▁HU	-10.7251
rofessional	-10.7251
2999	-10.7252
mag	-10.7253
▁consume	-10.7253
▁successful	-10.7253
medy	-10.7255
there	-10.7256
ndividual	-10.7264
reference	-10.7266
aternity	-10.7266
ona	-10.7267
▁possib	-10.7267
operation	-10.7269
Hahaha	-10.7269
BXN	-10.727
xcept	-10.727
mploy	-10.727
script	-10.7271
ATI	-10.7271
/2017/01/	-10.7271
Ludogorets	-10.7271
▁waterboard	-10.7271
^	-10.7271
atisfaction	-10.7271
cholarship	-10.7271
▁dispute	-10.7271
▁mysterious	-10.7271
▁retaliat	-10.7271
▁feminist	-10.7271
Collection	-10.7271
nosleep	-10.7271
rosoft	-10.7271
atford	-10.7271
Moscow	-10.7271
▁false	-10.7271
ilbao	-10.7271
▁conduct	-10.7271
▁plain	-10.7271
VpZ	-10.7271
Actually	-10.7272
▁France	-10.7272
▁insult	-10.7272
skip	-10.7272
▁fruit	-10.7272
gna	-10.7272
icular	-10.7273
candals	-10.7273
ULL	-10.7274
cafe	-10.7274
▁WILL	-10.7275
HAQ	-10.7275
bournemouth	-10.7275
liverpool	-10.7275
tie	-10.7275
bord	-10.7276
▁disclos	-10.7277
lean	-10.7278
▁debate	-10.7278
▁repo	-10.7278
gx	-10.7279
▁trolling	-10.7279
▁setting	-10.728
AB	-10.7281
▁cru	-10.7281
▁described	-10.7281
hunt	-10.7284
▁Happ	-10.7286
hW	-10.7286
ARS	-10.7287
rip	-10.7287
galax	-10.7287
▁expens	-10.7288
▁requirement	-10.729
▁MAG	-10.7293
▁eventual	-10.7298
broad	-10.7301
vip	-10.7303
▁Cru	-10.7305
Finger	-10.7307
Page	-10.7308
vent	-10.7309
aw	-10.7309
▁referr	-10.7311
Ac	-10.7319
BF	-10.7328
▁entering	-10.7332
LIVE	-10.7333
▁ANDR	-10.7334
▁flo	-10.7335
▁mel	-10.7343
2,[	-10.7355
▁:[	-10.7357
hno	-10.7359
▁sh	-10.7359
▁;	-10.7365
▁Mo	-10.7366
28	-10.7373
nature	-10.7373
ddy	-10.7375
cite	-10.7377
▁Ex	-10.7379
▁copy	-10.7386
▁accounts	-10.7386
▁TA	-10.739
vision	-10.7398
▁bath	-10.7402
nag	-10.7404
poor	-10.7405
mmy	-10.7406
craft	-10.7406
samre	-10.7412
▁POS	-10.742
▁Bes	-10.7424
3-	-10.7425
▁32	-10.7429
▁special	-10.7429
ckets	-10.743
80	-10.7441
▁noise	-10.7445
▁GI	-10.7445
mises	-10.7448
▁CHA	-10.7452
games	-10.7463
rbitration	-10.7468
▁box	-10.7482
▁forge	-10.7486
NDER	-10.749
ints	-10.7491
▁wal	-10.7497
association	-10.7504
Gol	-10.7506
3984	-10.7507
3019	-10.7508
ip	-10.7516
▁din	-10.7519
mj	-10.7532
▁near	-10.7536
7627	-10.7559
ır	-10.757
11743	-10.7573
▁results	-10.7574
▁Am	-10.7576
stical	-10.7581
At	-10.7587
▁consented	-10.7591
hamm	-10.7597
9525	-10.7597
1794	-10.7598
ifa	-10.7599
▁starts	-10.7616
dont	-10.7624
Zv	-10.763
rew	-10.7632
aU	-10.7647
lash	-10.7654
ramp	-10.7659
six	-10.7669
▁.....	-10.7674
110	-10.7691
BZ	-10.7702
NDING	-10.7711
arsa	-10.7718
lien	-10.7722
▁hero	-10.7723
▁Pro	-10.7724
am	-10.7724
EA	-10.7729
consult	-10.7734
um	-10.7737
▁whore	-10.7737
Muslim	-10.7743
smok	-10.7744
een	-10.7747
yeah	-10.775
1488	-10.7752
torrent	-10.7753
experience	-10.7756
brain	-10.7757
wrong	-10.7759
▁authori	-10.7759
azin	-10.776
1555	-10.7765
▁bigg	-10.7775
open	-10.7777
DIT	-10.7784
insurance	-10.7784
onto	-10.7793
RG	-10.7816
▁slaves	-10.7823
CB	-10.7828
▁campaign	-10.7829
ht	-10.7835
-12/	-10.7855
05	-10.7856
▁unt	-10.7859
▁Rap	-10.7866
plor	-10.7866
▁hi	-10.7869
▁CP	-10.7875
▁forms	-10.789
veni	-10.7895
estic	-10.79
▁chang	-10.7902
fare	-10.7904
nap	-10.7908
mu	-10.791
Break	-10.792
ood	-10.7924
olence	-10.7924
9,">	-10.793
3065	-10.7943
pace	-10.7949
6095	-10.7952
▁blu	-10.7969
em	-10.7971
bsolute	-10.7981
CH	-10.8001
hear	-10.8002
▁tools	-10.8004
▁ram	-10.8021
EAL	-10.8027
▁trespass	-10.8029
echnology	-10.8033
101	-10.8034
▁yu	-10.8036
ea	-10.8044
min	-10.8046
▁harass	-10.8049
▁enter	-10.8049
ec	-10.8065
data	-10.8069
▁sun	-10.8071
▁dispos	-10.8072
▁mobil	-10.8077
rc	-10.8078
▁spous	-10.8081
▁OW	-10.8083
ppendi	-10.8085
augh	-10.8086
1202	-10.8086
atalie	-10.8087
▁spoof	-10.809
yb	-10.8091
ield	-10.8091
cialis	-10.8092
▁14,	-10.8093
gan	-10.8095
antena	-10.8097
mmons	-10.81
ransfer	-10.81
etic	-10.81
11893	-10.8102
6396	-10.8102
pol	-10.8102
xpect	-10.8104
Bracelets	-10.8104
experi	-10.8105
Serie	-10.8105
amurai	-10.8105
-1599157	-10.8105
Http	-10.8105
Mirror	-10.8105
▁Amazing	-10.8105
▁Application	-10.8105
▁Australia	-10.8105
▁fundamental	-10.8105
▁globe	-10.8105
▁penalty	-10.8105
▁prescribed	-10.8105
▁robbe	-10.8105
eatened	-10.8105
2649	-10.8105
International	-10.8105
▁happi	-10.8105
▁slander	-10.8105
iantic	-10.8105
streamtoday	-10.8105
Update	-10.8105
▁Hack	-10.8105
▁PRIZE	-10.8105
0829	-10.8105
conjuring	-10.8105
fetish	-10.8105
▁incur	-10.8105
megashare	-10.8105
crooked	-10.8105
concrete	-10.8105
▁CONTE	-10.8105
judic	-10.8105
Illegal	-10.8105
▁loose	-10.8105
DIY	-10.8105
inspiration	-10.8105
torenvy	-10.8106
▁scop	-10.8106
▁interception	-10.8106
amz	-10.8107
▁responsibility	-10.8108
doption	-10.8108
▁kidnapp	-10.8108
poland	-10.8108
▁prosecute	-10.8108
▁mor	-10.8109
▁GAME	-10.8109
▁cooperation	-10.8109
▁mir	-10.811
shopping	-10.811
▁memor	-10.8111
▁Elo	-10.8111
▁DONA	-10.8112
/2016/05/	-10.8112
▁Saf	-10.8112
ızı	-10.8113
toxic	-10.8114
brit	-10.8114
atex	-10.8114
▁Legends	-10.8114
=19	-10.8115
Bleach	-10.8116
releases	-10.8117
Book	-10.8118
▁Blog	-10.8122
▁Etsy	-10.8123
▁foam	-10.8123
STR	-10.8124
QJ	-10.8125
MES	-10.8127
naco	-10.8127
LOA	-10.8127
▁SUB	-10.8128
lfriend	-10.813
nstant	-10.8134
▁circum	-10.8136
/18/	-10.8139
scape	-10.8139
Forum	-10.814
▁pow	-10.8141
▁forgive	-10.8141
▁pic	-10.8143
▁compl	-10.8145
tz	-10.8151
▁obtained	-10.8155
gate	-10.8163
▁PR	-10.8164
▁Maker	-10.8165
▁winn	-10.8168
alist	-10.8168
▁ya	-10.8172
competition	-10.8173
tana	-10.8179
▁BAS	-10.818
▁EU	-10.8181
2256	-10.8186
Petersen	-10.8186
rmed	-10.8187
81	-10.8188
mia	-10.8194
▁alert	-10.8201
▁stopp	-10.8221
NBA	-10.8222
▁tip	-10.8223
▁fam	-10.8231
▁fla	-10.8233
▁sites	-10.8236
_1	-10.8242
▁determine	-10.8253
▁Moo	-10.8254
▁locks	-10.8261
▁speaking	-10.8263
▁compli	-10.8264
▁ti	-10.8265
RIO	-10.8271
wnvote	-10.8272
▁und	-10.8279
ap	-10.8281
liv	-10.8284
ray	-10.8285
▁Asia	-10.8287
▁update	-10.8295
iers	-10.8297
eset	-10.8297
isb	-10.83
▁parts	-10.8304
▁fo	-10.8306
▁porn	-10.8307
pM	-10.8311
▁tech	-10.8317
EC	-10.8319
investments	-10.8325
df	-10.8326
79&	-10.8329
▁quest	-10.8334
▁(0	-10.8334
erve	-10.8336
rogen	-10.834
fingerprint	-10.835
▁VI	-10.8368
▁Dr	-10.8373
Pose	-10.8383
OH	-10.8384
▁UN	-10.8393
tim	-10.8402
verything	-10.8408
uf	-10.8414
▁bed	-10.8415
IA	-10.8416
lie	-10.842
photo	-10.8458
vh	-10.846
Cor	-10.8462
oney	-10.8465
investing	-10.8475
▁benefits	-10.848
stor	-10.8503
des	-10.8509
804	-10.8512
ENDING	-10.8516
▁users	-10.8523
aka	-10.8525
▁vote	-10.8526
Fi	-10.8533
▁Kno	-10.8552
▁ev	-10.8561
▁infr	-10.8566
zv	-10.8571
gger	-10.8573
apple	-10.8582
ward	-10.8593
▁artist	-10.86
ix	-10.8601
fans	-10.8618
print	-10.8626
luff	-10.8628
tle	-10.863
▁Com	-10.8633
oul	-10.8646
Ew	-10.865
Internet	-10.8652
YT	-10.8655
upon	-10.8657
released	-10.8661
deposit	-10.8661
injury	-10.8665
final	-10.8665
medical	-10.8666
school	-10.8667
everyone	-10.8667
dogs	-10.8668
kind	-10.867
lol	-10.868
money	-10.8693
gold	-10.8698
tools	-10.8705
▁enforce	-10.8713
UK	-10.8723
ding	-10.8724
▁FB	-10.8735
does	-10.8736
mq	-10.8743
PH	-10.8744
625	-10.8745
ada	-10.8754
ju	-10.8755
xD	-10.8758
cheaper	-10.8772
reli	-10.8783
under	-10.8784
FR	-10.8794
lk	-10.8795
Qn	-10.8799
▁immigrant	-10.8802
vacan	-10.881
3265	-10.8814
wagb	-10.8827
edir	-10.8832
▁ha	-10.8839
▁probabl	-10.8842
constitutional	-10.8844
29	-10.8849
837	-10.8855
fil	-10.886
300	-10.8867
9,[	-10.8867
REE	-10.8871
▁quot	-10.8873
bortion	-10.8876
▁ideas	-10.8879
0610	-10.8881
▁An	-10.8882
lright	-10.89
▁releas	-10.8919
tho	-10.8919
▁convict	-10.894
▁el	-10.8941
▁competiti	-10.8943
▁cheat	-10.8949
ills	-10.8952
HH	-10.8955
▁obtain	-10.8959
util	-10.8974
▁owner	-10.8976
ssed	-10.8977
pharmac	-10.8978
kS	-10.8983
▁suicid	-10.8986
ived	-10.8989
bil	-10.899
▁guilt	-10.899
▁372	-10.8992
artner	-10.8994
artoon	-10.8994
▁obvious	-10.8996
Final	-10.8996
tanford	-10.9005
▁Arabi	-10.9006
excus	-10.9007
Un	-10.9008
▁confi	-10.9009
▁discou	-10.9009
▁possess	-10.901
ollege	-10.9011
10327	-10.9011
12935	-10.9011
nderwear	-10.9011
edophil	-10.9014
▁Afghanistan	-10.9014
▁emergenc	-10.9014
▁interpret	-10.9014
▁resolved	-10.9014
▁screen	-10.9014
▁firearm	-10.9014
Apollo	-10.9014
▁Credit	-10.9014
▁arrive	-10.9014
▁librar	-10.9014
model	-10.9014
▁drastic	-10.9014
LOOK	-10.9014
▁OVER	-10.9014
/2016/08/	-10.9014
▁incredibl	-10.9014
▁forfeit	-10.9014
▁Xbox	-10.9014
fathers	-10.9014
▁Ka	-10.9015
▁percent	-10.9015
rative	-10.9015
▁repair	-10.9016
mmunit	-10.9016
scus	-10.9016
EY	-10.9017
Back	-10.9017
▁Excellent	-10.9017
ism	-10.9019
brick	-10.9019
uran	-10.9019
▁perce	-10.902
▁Turk	-10.9021
MMA	-10.9023
rrange	-10.9028
itals	-10.9028
▁blood	-10.9029
▁355	-10.9029
▁anymore	-10.9029
▁OUT	-10.9029
oath	-10.903
sturba	-10.903
selves	-10.903
2865	-10.9032
etwork	-10.9032
UtS	-10.9032
TIC	-10.9032
Finally	-10.9033
▁launch	-10.9033
▁diploma	-10.9033
▁opi	-10.9034
kla	-10.9036
▁obt	-10.9038
htm	-10.9038
▁Fri	-10.9039
Banner	-10.9041
2/19/	-10.9041
TEN	-10.9044
anie	-10.9044
Cau	-10.9045
2456	-10.9045
elivery	-10.9047
eP	-10.9047
SLI	-10.9047
▁conce	-10.9048
▁eventually	-10.9049
▁heat	-10.905
▁involve	-10.9051
/1615	-10.9056
ven	-10.9058
RP	-10.9061
mbership	-10.9061
gz	-10.9062
-2	-10.9064
reason	-10.9066
dab	-10.9066
gQ	-10.9068
ship	-10.9069
▁ji	-10.907
▁Legally	-10.9071
nchen	-10.9078
desc	-10.9079
calls	-10.908
troni	-10.9083
▁cheating	-10.9087
▁2009,	-10.9088
onet	-10.9089
aught	-10.9092
Man	-10.9093
illa	-10.9095
knot	-10.9105
tel	-10.9108
yf	-10.911
▁space	-10.9111
rina	-10.9111
▁drugg	-10.9115
ye	-10.9117
247	-10.9118
▁boot	-10.9122
RECT	-10.9123
Really	-10.9124
map	-10.9124
only	-10.9127
IST	-10.9132
ensh	-10.9134
arse	-10.9144
ucher	-10.9145
roduc	-10.9147
WOR	-10.9148
2083	-10.915
rtful	-10.9155
rity	-10.9155
equest	-10.9156
Time	-10.9157
hdr	-10.916
nsible	-10.9166
1#	-10.9167
UB	-10.9169
▁CA	-10.9176
2046	-10.9179
qk	-10.9179
texts	-10.918
cent	-10.9184
▁medi	-10.9202
▁Hell	-10.922
▁immigrants	-10.9231
ando	-10.9232
mary	-10.9235
adv	-10.925
▁mark	-10.9258
Bri	-10.9261
▁style	-10.928
14662	-10.9285
ens	-10.9288
▁smok	-10.9295
▁Share	-10.9305
ffl	-10.9309
15217	-10.9312
5,[	-10.9313
13/	-10.9352
5258	-10.936
▁RAP	-10.9361
ible	-10.9365
kme	-10.9373
▁thou	-10.9374
ATT	-10.9385
oken	-10.9389
▁Internet	-10.9389
▁centers	-10.9399
66	-10.9401
▁Hy	-10.9411
▁mana	-10.9412
4,"**	-10.9418
▁reve	-10.9419
▁Muslim	-10.9426
1,"**	-10.9427
lian	-10.943
▁plea	-10.9432
▁Tr	-10.9433
hF	-10.9442
tor	-10.9444
ab	-10.9445
New	-10.945
AI	-10.9454
cO	-10.9464
ota	-10.947
535	-10.9471
▁disab	-10.9475
▁DEA	-10.9476
▁prea	-10.9482
aves	-10.9482
▁6000	-10.95
8034	-10.9501
▁ac	-10.9504
ct	-10.951
ups	-10.952
sert	-10.9524
01	-10.953
ham	-10.9532
duc	-10.9534
tip	-10.9545
▁IG	-10.9547
eautiful	-10.9552
NDA	-10.9553
▁cyber	-10.9564
END	-10.9567
Manu	-10.9571
▁SN	-10.9581
▁Sell	-10.9581
▁$0	-10.9584
RV	-10.9585
great	-10.9595
▁mobile	-10.9607
Aa	-10.9611
York	-10.9615
nific	-10.9616
ixt	-10.9629
xx	-10.963
Rap	-10.9631
mb	-10.9633
consensual	-10.9635
DRO	-10.9638
ath	-10.9649
wp	-10.965
German	-10.9662
violent	-10.9664
$50	-10.9666
desire	-10.9666
possible	-10.9667
high	-10.9668
RAP	-10.9668
class	-10.9669
with	-10.967
coupon	-10.9672
9073	-10.9674
carr	-10.9675
number	-10.9677
fair	-10.9681
JO	-10.9682
gio	-10.9691
give	-10.9691
Put	-10.9693
nc	-10.9709
ore	-10.9721
ootball	-10.9722
edicine	-10.9727
music	-10.9729
▁te	-10.973
known	-10.974
cast	-10.9742
▁certificat	-10.9757
7,"**	-10.9787
claim	-10.9788
▁13,	-10.9791
rich	-10.9792
3%	-10.9805
86	-10.9808
20	-10.981
HEL	-10.9816
edu	-10.9825
▁BIT	-10.9828
care	-10.9838
workers	-10.9847
fore	-10.9848
27.	-10.985
▁ww	-10.9853
had	-10.9853
ntion	-10.9863
▁Vi	-10.9865
0448	-10.9868
ACK	-10.9892
FF	-10.9896
▁864	-10.9896
▁custom	-10.99
366	-10.9909
dical	-10.9909
dly	-10.9915
▁Pre	-10.9915
▁ID	-10.9921
▁AT	-10.9923
▁qualif	-10.9945
nudis	-10.9948
tating	-10.9949
IR	-10.995
OIN	-10.9952
mi	-10.9954
RRE	-10.9962
tV	-10.9964
▁intim	-10.9977
▁advocat	-10.9978
13851	-10.9979
ASE	-10.9984
▁Bann	-10.9985
▁titl	-10.9986
▁felon	-10.9997
toke	-10.9998
11	-10.9999
na	-11.0002
session	-11.0003
GP	-11.0005
udist	-11.0005
▁Carr	-11.0006
1986	-11.0008
▁bann	-11.0009
otspur	-11.001
▁punc	-11.001
7594	-11.0011
▁actions	-11.0011
9350	-11.0012
ffectively	-11.0013
▁intent	-11.0013
struction	-11.0013
velope	-11.0013
0762	-11.0013
nerdy	-11.0014
romwich	-11.0014
Audrey	-11.0014
Bradford	-11.0014
avelry	-11.0014
nicholes	-11.0014
Nichole	-11.0014
▁eligib	-11.0014
Perhaps	-11.0014
global	-11.0014
pokefindernow	-11.0014
é	-11.0014
▁PROPERTY	-11.0014
▁advertise	-11.0014
▁appreciate	-11.0014
▁handgun	-11.0014
▁increase	-11.0014
▁Garden	-11.0014
▁DOWNLOAD	-11.0014
▁laundering	-11.0014
▁Statu	-11.0014
Nerdy	-11.0014
birds	-11.0014
tuation	-11.0014
▁muslim	-11.0014
▁Keys	-11.0014
▁penis	-11.0014
▁score	-11.0014
ETTI	-11.0014
▁CONTENT	-11.0014
▁passport	-11.0014
tadium	-11.0014
360.	-11.0015
mmod	-11.0015
▁Speci	-11.0015
▁Point	-11.0015
filter	-11.0015
kraine	-11.0015
▁rem	-11.0015
anada	-11.0016
▁worse	-11.0016
7026	-11.0017
▁Europe	-11.0017
=149	-11.0017
4.99	-11.0018
▁testify	-11.0019
giant	-11.0019
▁expunged	-11.0019
▁resp	-11.002
▁9/10	-11.0021
▁denied	-11.0023
EWS	-11.0023
▁Beautiful	-11.0023
▁oz	-11.0024
bar	-11.0024
▁minorit	-11.0025
werd	-11.0025
▁settlement	-11.0026
demy	-11.0027
%20	-11.0028
nhan	-11.0031
▁POK	-11.0035
▁plug	-11.0035
▁size	-11.0037
md	-11.0037
▁vid	-11.0039
5564	-11.004
kara	-11.0041
uda	-11.0046
prof	-11.0047
▁accusations	-11.0048
madrid	-11.005
oki	-11.0051
browse	-11.0051
▁sno	-11.0057
▁walking	-11.0059
Right	-11.0067
▁banned	-11.007
▁SC	-11.0074
ugust	-11.0087
792	-11.0087
smith	-11.0096
necessary	-11.0102
mele	-11.0107
_2	-11.0113
▁Sex	-11.0121
PER	-11.0122
▁entirely	-11.0126
▁45	-11.0128
▁warning	-11.0129
teens	-11.0131
▁market	-11.0141
▁trac	-11.0143
battle	-11.0143
▁shorts	-11.0151
imulation	-11.0153
skill	-11.0159
qo	-11.016
▁wi	-11.0163
tes	-11.0164
▁56	-11.0164
▁Vie	-11.0167
sho	-11.0169
cU	-11.0171
quote	-11.0172
images	-11.0172
▁CC	-11.0176
▁NE	-11.0177
▁convert	-11.0182
bye	-11.0194
dr	-11.0195
▁quickly	-11.0202
660	-11.0205
▁threatening	-11.0207
oso	-11.0216
Eh	-11.0218
kle	-11.022
lbion	-11.0221
airs	-11.0223
2,">	-11.0224
cR	-11.0232
▁STRE	-11.0237
Knots	-11.0239
▁perfect	-11.0252
phy	-11.0252
oc	-11.0255
▁WH	-11.0259
air	-11.0262
▁conversation	-11.027
hirt	-11.0277
itude	-11.0279
▁conc	-11.0279
▁acco	-11.0283
▁cur	-11.0306
va	-11.0314
▁horse	-11.0323
72	-11.0329
cles	-11.0331
▁extensi	-11.0334
▁sole	-11.0336
-17	-11.0339
▁nig	-11.0343
qy	-11.0344
2859	-11.0349
ink	-11.0351
▁President	-11.036
ross	-11.0367
▁ple	-11.0368
▁IM	-11.0369
533	-11.0381
▁prima	-11.0397
scar	-11.0405
/60	-11.0409
▁Fre	-11.0414
DK	-11.0416
rewery	-11.0422
dding	-11.0423
inan	-11.0431
▁stated	-11.0452
EP	-11.0474
9837	-11.0477
5339	-11.048
entity	-11.0487
▁union	-11.0487
▁44	-11.0497
8979	-11.0506
onvers	-11.0509
▁prices	-11.0527
▁fails	-11.0538
EE	-11.0546
mmm	-11.0548
lab	-11.0553
ud	-11.0554
▁slap	-11.0555
yin	-11.0558
▁lead	-11.0569
▁honest	-11.0577
XD	-11.0581
▁1500	-11.06
476	-11.06
▁Law	-11.0615
-7	-11.0622
ash	-11.063
▁kin	-11.063
.....	-11.0633
uz	-11.0658
▁State	-11.066
▁Cu	-11.0664
FA	-11.0671
nova	-11.0672
▁fa	-11.0674
stra	-11.0675
109	-11.0683
ram	-11.0684
REN	-11.0684
17	-11.0685
915	-11.0687
hut	-11.0699
gli	-11.07
ieve	-11.07
prim	-11.0734
hoo	-11.0735
730	-11.0739
Sport	-11.0749
▁ES	-11.0758
naked	-11.076
Cro	-11.0762
President	-11.0766
210	-11.0766
PO	-11.0769
happen	-11.0771
Over	-11.0774
BIR	-11.0775
Hot	-11.0775
marriage	-11.0776
74	-11.0776
Also	-11.0779
safe	-11.0779
profiles	-11.078
TE	-11.0781
Spam	-11.0783
compensation	-11.0785
GO	-11.0786
about	-11.0786
ugh	-11.0794
che	-11.0794
Just	-11.0795
sage	-11.0795
rde	-11.0799
hot	-11.0799
USE	-11.08
from	-11.0803
*.	-11.0808
EXT	-11.081
contact	-11.0813
YES	-11.0817
859	-11.0819
tof	-11.082
▁mistakes	-11.083
place	-11.0834
Call	-11.0836
sign	-11.0837
▁7706	-11.0843
ALIK	-11.0846
▁tele	-11.0858
comment	-11.0858
0,"**	-11.087
sky	-11.0876
glasses	-11.0881
▁discover	-11.0894
asking	-11.0901
than	-11.0902
fographic	-11.0902
ax	-11.0908
dep	-11.0918
ingo	-11.0919
hiladelphia	-11.0925
solution	-11.0935
lf	-11.0935
sgo	-11.0937
▁science	-11.0941
946	-11.0946
▁detail	-11.095
Knot	-11.0953
OME	-11.0956
▁AF	-11.0971
its	-11.0971
720	-11.0975
▁Cam	-11.0988
435	-11.0996
mming	-11.0999
ecu	-11.1006
lone	-11.1007
232	-11.1013
▁trump	-11.1023
▁BT	-11.1026
▁disc	-11.1038
ategory	-11.1046
▁inde	-11.1049
may	-11.1052
▁Nam	-11.1056
ification	-11.106
▁Writ	-11.1063
▁513	-11.1064
23	-11.1075
SC	-11.1077
trad	-11.1077
▁Gam	-11.1094
▁$10	-11.1096
3772	-11.1101
rection	-11.1104
rotect	-11.1106
▁881	-11.1107
raphics	-11.1109
471	-11.1114
ompensation	-11.1115
▁thin	-11.1115
▁luc	-11.1116
▁Data	-11.112
▁cooperat	-11.1121
omputer	-11.1122
0966	-11.1122
8276	-11.1122
xcellent	-11.1122
10528	-11.1123
3921	-11.1124
9687	-11.1125
▁education	-11.1125
▁accumulat	-11.1125
▁satisfy	-11.1125
Dream	-11.1125
eutral	-11.1125
structure	-11.1125
▁Croatia	-11.1125
▁Middle	-11.1125
▁Upvote	-11.1125
▁accurate	-11.1125
▁stumble	-11.1125
▁travel	-11.1125
▁declare	-11.1125
sDANd	-11.1125
▁Further	-11.1125
▁insane	-11.1125
▁LEG	-11.1125
▁contain	-11.1125
nough	-11.1125
▁themself	-11.1125
▁registration	-11.1125
eveloper	-11.1125
▁positive	-11.1125
▁Fir	-11.1125
▁Look	-11.1125
▁feedback	-11.1126
mortgage	-11.1126
▁procedure	-11.1127
tag	-11.1127
9032	-11.1127
3609	-11.1128
Super	-11.1129
ilant	-11.1129
▁Lang	-11.1129
▁okay	-11.1129
▁CNN	-11.1129
unning	-11.1129
fresh	-11.113
8,[	-11.113
443	-11.113
elect	-11.1131
cua	-11.1131
▁technicality	-11.1131
▁improve	-11.1132
echt	-11.1133
actory	-11.1133
""><	-11.1133
east	-11.1133
rock	-11.1134
wr	-11.1136
▁4444	-11.1136
housing	-11.1137
cene	-11.1137
gelb	-11.1138
elle	-11.1138
▁everytime	-11.1138
0307	-11.1138
overn	-11.1139
ology	-11.114
▁inforce	-11.1141
frame	-11.1142
5710	-11.1143
By	-11.1144
,000,000	-11.1145
iht	-11.1148
▁20%	-11.1148
▁conscious	-11.1149
%2	-11.1152
▁ball	-11.1153
71	-11.1154
▁withhold	-11.1156
▁writer	-11.1158
ECA	-11.1158
tchy	-11.116
uicide	-11.1162
▁individuals	-11.1164
▁Gene	-11.1175
▁PRI	-11.118
▁returns	-11.1183
HOU	-11.1185
downloads	-11.1187
showbox	-11.1188
emoved	-11.1189
▁quiet	-11.1192
sheet	-11.1193
▁Rus	-11.1199
Intel	-11.1201
▁residen	-11.121
▁Conve	-11.1213
alte	-11.1217
YM	-11.1218
▁tend	-11.1222
195	-11.1235
51,">	-11.1241
▁CHAN	-11.1248
▁solved	-11.125
1919	-11.1253
▁labo	-11.1256
gp	-11.1263
OUP	-11.1266
Congr	-11.127
▁owed	-11.128
▁dark	-11.1282
▁guide	-11.1283
Lh	-11.1296
lude	-11.1297
▁$1	-11.1297
add	-11.1303
nding	-11.131
ching	-11.1315
mon	-11.1316
Xv	-11.1319
9866	-11.1326
068	-11.1331
limb	-11.1342
▁Star	-11.1345
▁$300	-11.1354
BK	-11.1355
presum	-11.1356
Ca	-11.1361
owning	-11.1367
▁waive	-11.137
mum	-11.1372
ux	-11.1374
dd	-11.1378
enco	-11.1381
3)	-11.1382
▁threats	-11.1392
lert	-11.14
BN	-11.1405
cr	-11.1427
dys	-11.1441
/33	-11.1446
thletic	-11.1448
yma	-11.1457
2613	-11.1465
ORTS	-11.1465
5864	-11.1466
ended	-11.1469
SIN	-11.1471
▁AMA	-11.149
chaturb	-11.149
▁....	-11.1494
▁Find	-11.1496
▁naked	-11.1505
▁issues	-11.1511
sportsn	-11.1512
16	-11.1519
▁dec	-11.152
▁54	-11.1528
standing	-11.1534
cee	-11.1534
raining	-11.1535
4042	-11.1536
▁Av	-11.1536
7,">	-11.1555
4998	-11.1562
fic	-11.1578
cademy	-11.1583
▁pon	-11.159
ffairs	-11.161
nt	-11.1613
papers	-11.1624
nalize	-11.163
tg	-11.1634
▁NB	-11.1638
▁programs	-11.1662
▁CN	-11.1664
hit	-11.1668
6513	-11.1669
5000	-11.1671
7124	-11.1681
▁1621	-11.1682
8057	-11.1684
max	-11.1686
rks	-11.1693
dens	-11.1716
88	-11.1721
othing	-11.1723
etter	-11.1738
ASS	-11.174
▁Des	-11.1741
nit	-11.1743
▁fees	-11.1745
ubes	-11.1745
lan	-11.1752
pr	-11.1771
LH	-11.1771
Jj	-11.1776
cest	-11.1807
▁abuse	-11.1811
▁AW	-11.1822
cub	-11.1831
aining	-11.1835
ENDE	-11.184
nderl	-11.1858
HON	-11.1862
▁cap	-11.1872
worker	-11.1876
mist	-11.1877
9002	-11.1888
▁Ge	-11.1891
yes	-11.1906
▁1610	-11.1914
PV	-11.1929
84	-11.1943
▁CLA	-11.1951
▁590	-11.1974
hack	-11.1976
oupon	-11.1977
73	-11.1977
Bein	-11.1983
Again	-11.1989
BE	-11.1993
OT	-11.1999
Home	-11.2003
Record	-11.2006
America	-11.2006
East	-11.2009
horse	-11.2012
Share	-11.2013
style	-11.2014
function	-11.2022
▁des	-11.2022
Black	-11.2024
cigarette	-11.2025
Video	-11.2026
Hillary	-11.2027
CHA	-11.2027
slut	-11.2028
WITH	-11.2028
original	-11.2029
local	-11.2029
again	-11.203
female	-11.203
donate	-11.2032
blow	-11.2033
Bank	-11.2036
found	-11.2037
dude	-11.2038
escorts	-11.204
professional	-11.2043
financial	-11.2044
COP	-11.2047
bitch	-11.2049
Fuck	-11.2053
tree	-11.2054
gra	-11.2059
job	-11.206
▁NL	-11.2067
nor	-11.2068
240	-11.2069
fix	-11.2085
WC	-11.2088
Dis	-11.2088
307	-11.2095
legally	-11.2102
369	-11.2102
ound	-11.2109
mel	-11.2109
Jo	-11.2117
build	-11.2119
WO	-11.2119
5,"**	-11.212
Start	-11.2126
▁ph	-11.2136
gress	-11.2138
661	-11.2138
well	-11.2141
▁serv	-11.2156
▁ty	-11.216
into	-11.2161
indee	-11.2162
converte	-11.2166
▁PROMO	-11.2167
▁Ter	-11.217
0477	-11.217
wk	-11.2173
4-	-11.2173
nl	-11.2176
▁Br	-11.2176
LP	-11.218
▁Friend	-11.218
=5	-11.2186
▁seconds	-11.219
/21	-11.2193
Since	-11.2208
2313	-11.2215
iment	-11.2218
eague	-11.2222
945	-11.2224
▁kit	-11.2225
TA	-11.2229
▁1622	-11.2237
456	-11.2237
2838	-11.2243
▁magn	-11.2248
ni	-11.2252
▁battl	-11.2253
▁444	-11.2253
3338	-11.2254
resident	-11.2259
▁parti	-11.2281
Mix	-11.2285
1702	-11.2285
uldn	-11.2288
▁9811	-11.2297
▁Who	-11.2299
pok	-11.23
▁supp	-11.231
ame	-11.2311
▁pul	-11.2313
▁rout	-11.233
anguage	-11.2333
▁desir	-11.2337
Batt	-11.2345
equent	-11.2346
nati	-11.2354
nw	-11.2356
igarette	-11.2364
try	-11.2365
resume	-11.2366
eapons	-11.2366
▁RAC	-11.2367
3875	-11.2367
Legend	-11.2368
ecret	-11.2368
iverpool	-11.2369
anax	-11.2371
7618	-11.2371
bal	-11.2371
13130	-11.2371
1987	-11.2372
7656	-11.2372
11188	-11.2372
omplain	-11.2372
12013	-11.2372
disca	-11.2373
1963	-11.2373
3353	-11.2374
11982	-11.2374
lamin	-11.2374
6751	-11.2375
bourne	-11.2375
nextgenrsbn	-11.2375
▁knife	-11.2375
OOOOO	-11.2375
naughtyginger	-11.2375
appropriate	-11.2375
hentermine	-11.2375
livepokemonnews	-11.2375
▁GUYS	-11.2375
▁consumption	-11.2375
▁decrease	-11.2375
▁ghost	-11.2375
▁machine	-11.2375
▁reproduction	-11.2375
▁technician	-11.2375
▁heavily	-11.2375
connect	-11.2375
▁circumstance	-11.2375
▁24/7	-11.2375
rsbn	-11.2375
btain	-11.2375
buff	-11.2375
outhampton	-11.2375
nthony	-11.2375
▁further	-11.2375
exico	-11.2375
▁remote	-11.2375
contest	-11.2375
6433	-11.2375
▁serials	-11.2375
0301	-11.2375
▁Supp	-11.2375
▁$170	-11.2375
sitive	-11.2376
international	-11.2376
Sorry	-11.2376
raps	-11.2377
Cafe	-11.2377
▁advance	-11.2378
▁Resu	-11.2378
libs	-11.2379
▁Cash	-11.238
laine	-11.238
xbox	-11.238
▁moment	-11.2381
RED	-11.2382
▁actionable	-11.2384
▁confiden	-11.2384
ART	-11.2385
▁NEWS	-11.2386
0,000,	-11.2387
impact	-11.2387
▁athletes	-11.2388
0034	-11.239
lson	-11.239
german	-11.2391
▁refer	-11.2392
gui	-11.2392
▁Trust	-11.2392
ECH	-11.2392
eltic	-11.2392
▁mentor	-11.2393
olar	-11.2394
▁Night	-11.2399
▁section	-11.2403
▁Account	-11.2403
attery	-11.2403
2475	-11.2405
Edit	-11.2405
▁informati	-11.2405
rote	-11.2405
supposedly	-11.2407
description	-11.2408
hidden	-11.2409
tchs	-11.241
views	-11.241
▁2377	-11.2411
RU	-11.2413
EYS	-11.242
=155	-11.242
▁Question	-11.2428
▁train	-11.2428
eff	-11.2428
2,"[	-11.2429
▁personally	-11.243
unes	-11.2431
hall	-11.2435
▁wen	-11.2436
GU	-11.2439
ashed	-11.2442
greate	-11.2445
han	-11.2456
state	-11.2457
lax	-11.2459
underrated	-11.246
▁Dut	-11.246
▁hoo	-11.2473
/9	-11.2477
tap	-11.2478
▁sen	-11.2486
reated	-11.2486
▁whis	-11.249
Promot	-11.2495
▁attend	-11.2502
KY	-11.2503
oth	-11.2509
:|	-11.251
PY	-11.2516
eur	-11.2521
187	-11.2528
AME	-11.253
xg	-11.2532
Op	-11.2537
▁convictions	-11.2538
/08/	-11.2547
843	-11.2556
pid	-11.2556
▁1435	-11.2557
pair	-11.2565
dol	-11.2565
▁NOT	-11.2565
char	-11.2567
▁1620	-11.2568
▁intern	-11.2579
hlight	-11.2611
▁hacks	-11.2612
etective	-11.2622
wi	-11.2623
#[	-11.2623
ORD	-11.2628
34/	-11.2631
recti	-11.2641
Ei	-11.2655
zes	-11.2658
-0/	-11.2667
cas	-11.2673
▁Ink	-11.2697
anked	-11.2697
box	-11.27
Eg	-11.2707
ains	-11.2719
guys	-11.2737
5472	-11.2737
▁America	-11.2739
▁gan	-11.2739
▁Cro	-11.2739
ONE	-11.2745
vig	-11.2745
▁Record	-11.2757
ase	-11.2758
4650	-11.276
features	-11.2767
▁light	-11.2774
▁WO	-11.2777
▁financ	-11.2786
joe	-11.2799
unk	-11.2804
dz	-11.281
...........	-11.2815
Am	-11.282
Brace	-11.2841
eve	-11.2841
▁loan	-11.285
▁1609	-11.286
sti	-11.2865
AND	-11.2877
NY	-11.2882
▁Medic	-11.2887
ill	-11.2897
SA	-11.2902
nkitt	-11.2915
▁strange	-11.2917
▁topics	-11.2918
tilities	-11.2922
ort	-11.2947
9815	-11.2953
fu	-11.2957
411,	-11.2957
▁dep	-11.298
-40	-11.3006
ania	-11.3012
""]	-11.3029
lists	-11.3041
ro	-11.3051
▁ver	-11.3076
24.	-11.3097
9173	-11.31
erstream	-11.3124
"")	-11.3142
sys	-11.3147
▁1562	-11.3155
img	-11.3157
prizes	-11.3176
acco	-11.3177
▁1597	-11.3181
quest	-11.3186
Pur	-11.3196
▁2000	-11.3204
▁Academ	-11.3236
▁application	-11.3239
ley	-11.325
profile	-11.3251
Ol	-11.3256
▁160	-11.3257
kill	-11.3262
▁ju	-11.3278
▁Off	-11.3283
vli	-11.3283
384	-11.3302
lay	-11.336
1053	-11.3361
▁prov	-11.3367
works	-11.3382
▁Auth	-11.3382
IS	-11.3387
mark	-11.3435
pure	-11.3438
▁ear	-11.3439
▁playing	-11.3439
conversation	-11.3439
perfect	-11.344
171	-11.3445
Though	-11.3446
system	-11.3447
married	-11.3447
square	-11.3447
unlikely	-11.3453
promo	-11.3453
freedom	-11.3456
national	-11.3457
collection	-11.3457
wanted	-11.3458
baby	-11.3463
Enjoy	-11.3463
tech	-11.3463
cannot	-11.3467
02	-11.3467
ments	-11.3469
▁SU	-11.3475
dead	-11.3477
table	-11.3481
hold	-11.3484
onus	-11.3488
wec	-11.3489
hanged	-11.3496
ox	-11.3496
lot	-11.3497
ron	-11.3497
pain	-11.3499
ua	-11.3503
investigate	-11.3503
AZ	-11.3517
hands	-11.3518
direct	-11.3518
Gl	-11.3525
hive	-11.3543
▁1592	-11.3547
170	-11.355
onors	-11.3565
gen	-11.3565
divisi	-11.3566
runk	-11.3574
3236	-11.3595
▁vi	-11.3599
▁Trad	-11.3599
PORT	-11.3608
107	-11.361
PA	-11.3612
town	-11.3619
arenthood	-11.3619
▁Help	-11.3627
scream	-11.3629
Digi	-11.3636
mage	-11.3639
▁remov	-11.3644
▁Love	-11.3646
nstagram	-11.3648
honor	-11.3661
ROA	-11.3664
▁PA	-11.367
▁carto	-11.367
TREE	-11.3675
0943	-11.3678
20000	-11.368
▁deb	-11.369
3779	-11.3692
2160	-11.3699
518	-11.37
15-	-11.3704
▁counte	-11.371
utorial	-11.3712
chats	-11.3733
31/	-11.3746
TIA	-11.3754
▁debt	-11.3757
/2016/12/	-11.3759
212	-11.3762
▁Simpl	-11.3763
olution	-11.3767
Futur	-11.3776
2901	-11.3785
▁previous	-11.3785
mpact	-11.3789
News	-11.379
eatures	-11.3793
anish	-11.3794
alex	-11.3794
▁detai	-11.3797
▁decisi	-11.3799
12648	-11.3799
13226	-11.38
ssay	-11.38
11150	-11.38
12751	-11.3801
6821	-11.3801
9404	-11.3801
▁certifi	-11.3801
▁contract	-11.3801
▁scien	-11.3801
evices	-11.3801
marte	-11.3802
7226	-11.3802
debat	-11.3802
otivat	-11.3803
▁fit	-11.3803
Charle	-11.3803
blue	-11.3803
Taxation	-11.3803
psychedelic	-11.3803
▁Bitcoin	-11.3803
▁Hospital	-11.3803
▁Meanwhile	-11.3803
▁influence	-11.3803
▁subject	-11.3803
dirty	-11.3803
▁Planne	-11.3803
mirror	-11.3803
brush	-11.3804
▁connection	-11.3804
Execut	-11.3804
Liber	-11.3804
raditional	-11.3804
uncovered	-11.3804
rfeit	-11.3804
▁BUY	-11.3804
9309	-11.3804
1699	-11.3804
ograms	-11.3804
▁Trick	-11.3804
▁consol	-11.3804
▁verified	-11.3804
----->	-11.3805
▁1486	-11.3805
▁haha	-11.3805
-2-2016-	-11.3805
rivat	-11.3805
capital	-11.3808
revolution	-11.3808
▁clarif	-11.3808
0796	-11.3808
arah	-11.3809
arian	-11.3809
Trap	-11.381
Portland	-11.3811
enmark	-11.3811
posal	-11.3812
PDK	-11.3813
ourse	-11.3816
ymar	-11.3818
eedback	-11.3819
Tune	-11.3821
viv	-11.3822
▁SOME	-11.3823
tific	-11.3824
films	-11.3831
filmi	-11.3834
▁substan	-11.3835
▁Gener	-11.3835
enture	-11.3838
▁guilty	-11.3843
lympics	-11.3844
OE	-11.3844
liga	-11.3848
embership	-11.3848
NDERS	-11.3851
mobi	-11.3852
ozy	-11.3854
cartoon	-11.3856
MAGA	-11.3863
stake	-11.3863
cust	-11.3871
ecent	-11.3872
Base	-11.3874
booster	-11.3875
Capital	-11.3876
elet	-11.3884
loans	-11.3885
▁Vid	-11.3893
WQ	-11.3893
utch	-11.3894
yman	-11.3894
ffiliate	-11.3895
jq	-11.3918
tl	-11.3919
Global	-11.392
za	-11.3927
▁PH	-11.3935
▁boost	-11.3939
ands	-11.3939
ygirl	-11.3945
15686	-11.3945
Nor	-11.3946
▁funds	-11.3948
flex	-11.395
▁gra	-11.3951
lik	-11.3952
▁Cat	-11.3954
rj	-11.3956
4838	-11.3958
members	-11.3958
14441	-11.3959
▁walk	-11.396
reg	-11.3963
>"	-11.3971
▁member	-11.3973
angu	-11.3977
cha	-11.3978
▁gene	-11.3983
▁Ki	-11.3987
epl	-11.3988
got	-11.3989
iler	-11.399
trap	-11.3998
29,[	-11.3999
get	-11.4
Dump	-11.4
alent	-11.4001
93,[	-11.4001
▁1601	-11.4005
▁1539	-11.4011
cG	-11.4017
=2&	-11.4018
odb	-11.4019
XL	-11.4024
▁debts	-11.4024
▁1563	-11.4039
linic	-11.4041
coin	-11.4045
inea	-11.4047
Ah	-11.4048
pus	-11.4051
dow	-11.4054
erz	-11.4055
wall	-11.4082
428	-11.4098
tery	-11.4101
Sh	-11.4111
nN	-11.4119
08/	-11.4122
unconstitutional	-11.4122
?_	-11.4122
▁DON	-11.4133
▁anime	-11.4137
▁Ere	-11.4147
▁Review	-11.4147
zie	-11.4151
▁twe	-11.4157
▁1538	-11.4164
votes	-11.4165
10	-11.4167
over	-11.4167
ERI	-11.4171
pany	-11.4172
▁fre	-11.4173
▁1600	-11.4176
pen	-11.4176
overs	-11.4194
nac	-11.4202
arc	-11.4211
nother	-11.4211
▁1479	-11.4213
▁1515	-11.4214
▁1491	-11.4217
##	-11.4225
▁1573	-11.4226
▁banks	-11.4228
Was	-11.423
EW	-11.4239
▁1465	-11.424
crazy	-11.4259
▁Home	-11.4262
▁Sha	-11.4273
............	-11.4274
per	-11.4297
▁1509	-11.4298
▁1555	-11.4303
mut	-11.4309
79.	-11.4311
tshirt	-11.432
▁ru	-11.4334
ote	-11.4335
▁3200	-11.4337
4526	-11.4343
ses	-11.4348
otes	-11.4354
▁covered	-11.4361
training	-11.4361
▁1608	-11.4375
bred	-11.4385
XS	-11.4386
goal	-11.4407
-22	-11.443
▁pack	-11.4436
jor	-11.4436
ytr	-11.4439
af	-11.4448
▁1492	-11.446
▁Gen	-11.4477
▁1537	-11.4488
▁ignor	-11.4488
▁row	-11.4489
clive	-11.4492
wS	-11.4493
5909	-11.4495
Yp	-11.4505
85,[	-11.4532
dis	-11.4535
Col	-11.4552
teen	-11.4572
▁sort	-11.4573
▁Bi	-11.4574
▁1611	-11.4576
▁1494	-11.458
4006	-11.4583
▁cons	-11.4591
▁1428	-11.4607
3184	-11.4627
azi	-11.4645
▁1447	-11.4652
6475	-11.4656
8991	-11.4665
MF	-11.4668
▁1549	-11.4676
▁JO	-11.4694
bQ	-11.4699
▁AC	-11.4707
▁1495	-11.4771
Hx	-11.478
TW	-11.478
rings	-11.4783
3,**	-11.48
▁Tru	-11.4824
atie	-11.4861
nell	-11.4892
▁review	-11.4893
▁profile	-11.4904
Game	-11.4905
pu	-11.4922
8862	-11.4964
Star	-11.497
yama	-11.4973
▁craz	-11.4974
▁ange	-11.4975
▁Cards	-11.4977
▁1619	-11.4998
bu	-11.5
qb	-11.5013
Ok	-11.5019
364	-11.5025
1989	-11.5027
eported	-11.5053
230	-11.5062
junk	-11.5077
▁AM	-11.5085
together	-11.5086
tape	-11.5094
anime	-11.5098
conc	-11.5112
Review	-11.5112
Market	-11.5113
nobody	-11.5114
Work	-11.5114
noise	-11.5115
pictures	-11.5121
1608	-11.5121
▁cure	-11.5121
75	-11.5124
women	-11.5125
spell	-11.5125
referral	-11.5126
quick	-11.5126
▁lit	-11.5127
▁1482	-11.5129
=0	-11.5143
Like	-11.5144
kick	-11.5158
999	-11.5162
pop	-11.5174
CO	-11.5189
Eve	-11.5191
rafts	-11.5194
ist	-11.5205
building	-11.521
dot	-11.5218
▁simul	-11.5231
▁specializ	-11.5242
▁St	-11.5248
cream	-11.5253
sued	-11.5255
▁conviction	-11.5261
▁minute	-11.5267
▁hour	-11.5271
giu	-11.5275
▁1441	-11.5276
002	-11.5278
hc	-11.5292
etersen	-11.5301
1975	-11.5313
MP	-11.5318
▁52	-11.532
▁---	-11.5323
Tim	-11.5325
pic	-11.5326
ncy	-11.534
Games	-11.5346
gl	-11.537
hispe	-11.5374
CONT	-11.538
Reci	-11.5381
▁bro	-11.5384
heth	-11.539
?""	-11.539
▁1591	-11.5408
IVE	-11.5411
escription	-11.5417
▁leav	-11.5425
▁1590	-11.543
googl	-11.5443
mber	-11.5447
ooster	-11.5449
▁wir	-11.5452
breakin	-11.5453
umber	-11.5453
pai	-11.5454
njoy	-11.5458
ompatibility	-11.5459
▁seri	-11.5464
glass	-11.5465
1978	-11.5465
6864	-11.5467
urrent	-11.5467
9370	-11.5467
ontrol	-11.5467
9185	-11.5467
13112	-11.5468
ndustr	-11.5468
edbubble	-11.5468
9319	-11.5468
Stra	-11.5469
11353	-11.5469
▁aggre	-11.5469
inspir	-11.5469
anslaughter	-11.5469
tock	-11.5469
ography	-11.547
coolnaira	-11.547
8067	-11.547
portugal	-11.547
▁Ontario	-11.547
▁Pentakill	-11.547
▁technique	-11.547
sequence	-11.547
ForPr	-11.547
xclusive	-11.547
ncensored	-11.547
Advance	-11.547
Cheap	-11.547
anyw	-11.547
8575	-11.547
Awesome	-11.547
0190	-11.547
dvert	-11.547
▁offense	-11.547
logs	-11.5471
niger	-11.5471
▁Safety	-11.5471
▁reinv	-11.5471
▁moder	-11.5471
ROM	-11.5471
tifu	-11.5471
▁pool	-11.5471
9812	-11.5471
hro	-11.5471
phil	-11.5471
stitu	-11.5471
5383	-11.5472
0084	-11.5472
Atheism	-11.5472
▁stim	-11.5472
bric	-11.5473
mulator	-11.5474
regor	-11.5474
ENTI	-11.5474
helmet	-11.5474
▁NYC	-11.5475
▁suspe	-11.5475
▁Lei	-11.5475
▁Reli	-11.5476
▁TRU	-11.548
happy	-11.5481
eligion	-11.5481
elf	-11.5483
▁outside	-11.5485
▁Arabic	-11.5485
arrier	-11.5485
FZi	-11.5486
aypal	-11.5488
Ww	-11.549
spea	-11.5491
antenalive	-11.5492
trace	-11.5493
___	-11.5497
roi	-11.5498
VERED	-11.5502
▁1528	-11.5502
greater	-11.5504
100/	-11.5506
▁fill	-11.5507
rover	-11.5508
ete	-11.5509
quir	-11.5509
▁SHIT	-11.5509
UCK	-11.5511
▁Pay	-11.5511
CHI	-11.5516
mandi	-11.5516
yv	-11.552
▁1606	-11.5522
tun	-11.5523
mix	-11.5528
▁Doub	-11.5528
cki	-11.5529
▁Specifically	-11.5531
▁spouse	-11.5532
pyw	-11.5534
▁4356	-11.5535
arpe	-11.5537
chel	-11.5537
sil	-11.5538
▁Spe	-11.5539
▁geno	-11.5544
anse	-11.5551
Aut	-11.5553
bou	-11.5557
olog	-11.5563
-2017.	-11.5568
▁shar	-11.5568
▁1461	-11.557
▁1475	-11.5574
ustm	-11.5581
▁Mir	-11.5581
▁Fr	-11.5585
obile	-11.5593
onj	-11.5595
rig	-11.5611
▁1439	-11.5612
ZY	-11.5617
-100	-11.5626
icep	-11.5628
▁1613	-11.5637
bers	-11.564
81,[	-11.5646
890	-11.5656
▁Ven	-11.5671
▁1567	-11.5677
63	-11.5677
onald	-11.568
▁1588	-11.5683
▁sch	-11.5689
04,[	-11.5694
▁1473	-11.5701
▁1352	-11.5702
▁bc	-11.5721
div	-11.5726
kon	-11.5746
▁1449	-11.5752
▁1552	-11.5755
▁1443	-11.5756
▁1529	-11.576
▁5.	-11.5766
nded	-11.5769
cart	-11.5771
68,[	-11.5772
2149	-11.5775
▁1598	-11.5782
92,[	-11.5784
▁1471	-11.5787
▁1501	-11.5795
▁1493	-11.5799
▁1579	-11.5817
▁incapa	-11.5819
hande	-11.583
mpt	-11.583
▁COM	-11.5836
▁1594	-11.584
IU	-11.5846
Say	-11.5855
▁FR	-11.5859
▁FU	-11.5867
jp	-11.5871
▁1464	-11.5881
classified	-11.5884
▁1506	-11.5919
▁Hous	-11.5924
▁1426	-11.5925
▁clin	-11.5927
▁1452	-11.5936
Em	-11.5946
▁1571	-11.5947
▁1429	-11.5957
▁1480	-11.5959
▁1541	-11.5968
▁BL	-11.5975
cred	-11.5976
mat	-11.5982
▁1431	-11.5987
▁forever	-11.5996
▁1617	-11.5999
▁1463	-11.6012
▁1532	-11.6014
3,"[	-11.6023
......	-11.6033
▁violate	-11.6034
▁1456	-11.6035
eckt	-11.6036
ew	-11.6039
▁Sh	-11.6042
▁1434	-11.6059
▁ki	-11.606
▁lock	-11.6072
648,	-11.6075
233,	-11.6077
hop	-11.6081
dom	-11.6086
OPE	-11.6088
gb	-11.6093
▁1536	-11.6106
▁1433	-11.611
▁1576	-11.6124
▁1544	-11.614
▁1589	-11.6141
▁1556	-11.6155
▁consensual	-11.6158
days	-11.6167
▁1510	-11.617
▁1489	-11.618
Sy	-11.6188
ej	-11.6191
RL	-11.6195
afi	-11.6218
reserv	-11.6225
Bur	-11.623
▁1422	-11.6237
▁1523	-11.6241
els	-11.6248
▁1522	-11.6251
-_-	-11.6294
uni	-11.6295
▁1616	-11.6298
▁1560	-11.6302
▁1517	-11.6303
▁1582	-11.6308
▁1564	-11.6314
ken	-11.6348
=10	-11.6353
▁1520	-11.6358
▁NS	-11.6366
bon	-11.637
ke	-11.6384
▁1583	-11.6399
Er	-11.641
▁1420	-11.642
62,[	-11.6424
gu	-11.6428
▁1561	-11.6436
▁listing	-11.6472
they	-11.6479
7553	-11.649
scam	-11.6505
ilian	-11.6524
▁1540	-11.6526
4,"	-11.6526
wq	-11.6534
nq	-11.6539
▁defin	-11.6541
49,[	-11.6562
15,[	-11.6573
EI	-11.658
8624	-11.6583
▁158	-11.6599
11276	-11.6603
▁je	-11.6604
955,	-11.6621
80.	-11.6634
Mu	-11.6644
59,[	-11.6681
19,[	-11.6682
events	-11.6693
unter	-11.6698
pf	-11.6701
▁162	-11.6719
18.	-11.6731
▁1503	-11.674
▁weed	-11.6752
ker	-11.6756
CR	-11.6762
▁1614	-11.6764
>[	-11.6804
knows	-11.6815
dine	-11.6828
▁zo	-11.6836
utu	-11.6857
WWE	-11.6859
member	-11.6861
▁feature	-11.6867
ib	-11.687
▁gro	-11.6881
283,	-11.6886
▁FO	-11.69
sham	-11.6901
raz	-11.6913
▁1615	-11.6968
rcia	-11.6987
-----	-11.7017
▁1565	-11.7034
Utt	-11.7034
Ustream	-11.7077
products	-11.7079
Quest	-11.7081
ton	-11.7084
▁144	-11.709
cE	-11.7108
▁except	-11.7108
▁cr	-11.7109
update	-11.7111
peace	-11.7114
register	-11.7116
Spanish	-11.7123
university	-11.7123
stuff	-11.7124
UP	-11.7124
Kick	-11.7131
weapons	-11.7132
▁1467	-11.7137
report	-11.7138
clean	-11.7141
sources	-11.7144
face	-11.7147
making	-11.7157
DON	-11.7192
▁1554	-11.724
pz	-11.725
▁Gu	-11.7254
overwatch	-11.7257
cience	-11.7261
▁weapon	-11.7264
▁1440	-11.7265
stat	-11.7297
emon	-11.7301
3974	-11.7303
1922	-11.7305
2173	-11.732
DM	-11.7331
▁1572	-11.7332
db	-11.7352
282	-11.7354
783,	-11.7385
gne	-11.7398
Fr	-11.7403
lind	-11.7406
eca	-11.7409
865	-11.7413
▁wonder	-11.7421
63,[	-11.7425
used	-11.7425
low	-11.7435
▁bloo	-11.7437
▁Sy	-11.7437
scorts	-11.7442
/2016/0	-11.7453
9666	-11.7459
SIT	-11.7459
ournemouth	-11.746
14563	-11.7462
niversity	-11.7462
12354	-11.7466
><	-11.7466
9,"	-11.7467
6862	-11.7467
7035	-11.7468
8569	-11.7468
1961	-11.7469
rancisco	-11.747
QR	-11.747
easonable	-11.747
▁RedBubble	-11.747
Browse	-11.747
lect	-11.747
Destiny	-11.747
cogni	-11.747
okefinder	-11.747
sakurabeauty	-11.747
▁automatically	-11.747
akura	-11.747
▁beauty	-11.747
naughty	-11.747
rovide	-11.747
Ranger	-11.747
▁alternative	-11.747
▁Hosting	-11.7471
▁profes	-11.7471
Christmas	-11.7471
8542	-11.7471
▁immigra	-11.7471
immor	-11.7471
▁article	-11.7471
rime	-11.7471
tagra	-11.7472
▁Kind	-11.7474
▁Comp	-11.7474
ixel	-11.7475
corp	-11.7476
2,"**	-11.7478
AIK	-11.7479
▁campa	-11.7481
Ks	-11.7482
IGH	-11.7483
dalaman	-11.7483
▁1476	-11.7483
REATE	-11.7483
wnl	-11.7483
ELI	-11.7487
KZ	-11.7489
utta	-11.7493
▁overweight	-11.7494
lang	-11.7495
▁1547	-11.7496
▁1595	-11.7498
france	-11.7503
xec	-11.7503
girlf	-11.751
arica	-11.7514
aver	-11.7515
++	-11.7515
zam	-11.7516
▁del	-11.7517
▁TestoGen	-11.7519
3807	-11.7519
cipat	-11.7519
▁rough	-11.7523
▁below	-11.7524
flash	-11.7524
▁1516	-11.7534
ease	-11.7534
▁vo	-11.7538
tien	-11.7538
48,">	-11.7541
▁1425	-11.7543
overlo	-11.7544
▁1502	-11.7546
▁admit	-11.7547
▁1526	-11.7549
cio	-11.7549
1-2	-11.7549
umv	-11.755
▁1521	-11.7554
5903	-11.7565
▁1438	-11.7574
remen	-11.7575
oi	-11.7579
eman	-11.7584
ife	-11.7598
Her	-11.7599
▁shape	-11.76
▁524	-11.7606
▁NEW	-11.7608
▁1490	-11.7609
Sev	-11.7613
63,"**	-11.7619
▁Show	-11.762
▁480	-11.7625
▁Co	-11.7625
▁1432	-11.7635
90,[	-11.7639
zl	-11.764
94,[	-11.7641
eCl	-11.7642
▁202	-11.7646
39,[	-11.7647
▁1574	-11.7659
fish	-11.7662
▁1604	-11.7672
gc	-11.7673
▁1505	-11.7677
▁1543	-11.768
▁1469	-11.768
fH	-11.7685
▁1566	-11.7702
ff	-11.7712
▁1511	-11.7723
▁1581	-11.7733
263	-11.7735
SI	-11.774
▁1450	-11.7744
amt	-11.7748
lines	-11.775
▁hype	-11.7753
IGN	-11.7771
▁RI	-11.7774
▁1437	-11.7783
842,"	-11.7788
efa	-11.7791
▁1519	-11.7806
▁1580	-11.7813
▁1548	-11.7815
▁Quest	-11.7827
▁1459	-11.7833
▁plan	-11.7836
straining	-11.7837
zeal	-11.7853
▁1430	-11.7858
pper	-11.7859
UE	-11.7873
tc	-11.7887
▁students	-11.7905
dust	-11.7908
ico	-11.7909
▁1546	-11.791
▁1460	-11.7914
65,[	-11.7915
▁clearly	-11.7924
▁1436	-11.793
▁1487	-11.7944
Chil	-11.7945
FX	-11.7947
▁1468	-11.796
▁together	-11.7961
▁1445	-11.7961
Zi	-11.7962
▁1535	-11.7971
▁1453	-11.798
Hn	-11.7987
▁1558	-11.7988
cil	-11.7988
naps	-11.7991
▁324	-11.8002
7&	-11.8003
▁vac	-11.8019
▁terms	-11.8025
▁1421	-11.8039
▁1514	-11.8044
▁1478	-11.805
prints	-11.8062
▁1477	-11.8065
tonline	-11.808
▁1484	-11.808
▁1446	-11.8085
▁1585	-11.8109
▁1578	-11.8123
908,"	-11.8133
▁Again	-11.8146
senti	-11.8166
tive	-11.8171
Came	-11.8171
▁1474	-11.8183
▁wh	-11.8188
▁sup	-11.8198
NI	-11.8201
15239	-11.8213
▁1542	-11.8216
▁1442	-11.8224
ned	-11.8226
46	-11.8227
▁1499	-11.8235
937,	-11.8236
▁goo	-11.8248
▁1527	-11.8254
jm	-11.826
463,	-11.8306
tricks	-11.8307
823,"	-11.831
smi	-11.8318
dio	-11.834
▁Kara	-11.8344
-3.	-11.8355
▁Ham	-11.8362
'''	-11.8371
histor	-11.8385
yup	-11.8409
▁loans	-11.8437
▁1530	-11.8438
▁br	-11.8441
16.	-11.8442
▁1545	-11.8446
▁1524	-11.846
loo	-11.8487
▁1498	-11.8546
▁1472	-11.8554
18,[	-11.8556
ional	-11.8592
▁1568	-11.8604
885,"	-11.8604
▁1455	-11.8605
890,"	-11.8607
▁Foo	-11.861
agen	-11.8642
▁1444	-11.8661
port	-11.867
57,[	-11.8682
888,"	-11.8712
410,"	-11.8714
Aren	-11.872
67,">	-11.8738
yn	-11.8755
681,"	-11.8757
▁ge	-11.876
aj	-11.8788
yours	-11.8795
Wal	-11.8798
Ea	-11.8847
tage	-11.8851
36,[	-11.8854
/04	-11.8855
desi	-11.8856
4267	-11.8871
▁Esp	-11.8873
mens	-11.8881
essa	-11.8922
8"	-11.8925
rive	-11.8959
▁1612	-11.8989
▁sig	-11.9015
▁jo	-11.9018
un	-11.902
4064	-11.9034
ement	-11.9037
2017.	-11.9045
▁sm	-11.9066
▁157	-11.9074
2391	-11.9105
9423	-11.9116
cott	-11.9133
418,"	-11.9137
0,"[	-11.9184
808	-11.9215
582	-11.9215
body	-11.923
owd	-11.9231
dia	-11.9248
otch	-11.928
eo	-11.9294
▁1488	-11.9298
444,"	-11.9299
53,[	-11.9327
▁154	-11.9371
ana	-11.9376
▁feed	-11.9383
981,"	-11.9389
97	-11.9399
84,">	-11.942
ul	-11.9422
Ob	-11.9429
emes	-11.9445
zif	-11.9452
▁mac	-11.946
WB	-11.9473
vince	-11.9489
▁ende	-11.9517
▁AL	-11.9517
sportslive	-11.9522
641,"	-11.956
126	-11.9596
942,	-11.96
walk	-11.9602
guide	-11.9609
artist	-11.9612
dark	-11.9615
truth	-11.9615
result	-11.9617
Talk	-11.962
sorry	-11.9623
obviously	-11.9624
count	-11.9625
should	-11.9627
week	-11.9629
inic	-11.9635
shoot	-11.9636
loss	-11.9638
Ib	-11.9648
Canada	-11.9651
step	-11.9652
another	-11.9661
wise	-11.9665
Youtu	-11.9665
▁PS	-11.9671
her	-11.9673
133,"	-11.9681
5146	-11.9681
Does	-11.9692
endors	-11.9699
▁1327	-11.9722
ture	-11.9727
audio	-11.9732
fire	-11.9745
pre	-11.9746
oundcloud	-11.9761
mith	-11.9764
media	-11.9783
ives	-11.9784
NC	-11.9792
---------------	-11.9796
532	-11.9797
37,[	-11.9805
tracks	-11.9805
15083	-11.9807
5800	-11.9822
POS	-11.9825
FU	-11.9828
▁Ric	-11.9833
▁bill	-11.9834
rgument	-11.985
nan	-11.986
▁brow	-11.9898
3711	-11.9902
▁supposed	-11.9918
▁6412	-11.9919
ahahah	-11.9919
witch	-11.9927
▁describe	-11.9935
speed	-11.994
▁warrant	-11.9943
unny	-11.9952
rangers	-11.9958
nativ	-11.996
evolution	-11.9962
▁Up	-11.9963
Tex	-11.9965
94	-11.9966
avors	-11.9967
33	-11.9967
7821	-11.9967
10374	-11.9968
ecision	-11.9968
12325	-11.9968
purpo	-11.997
thetrappodcast	-11.997
semalt	-11.997
Netflix	-11.997
celebrity	-11.997
freeandshopping	-11.997
▁Antonio	-11.997
▁hilarious	-11.997
▁pedestrian	-11.997
▁scenario	-11.997
▁privacy	-11.997
6640	-11.997
nspira	-11.997
▁sketch	-11.997
▁Besides	-11.997
Phil	-11.997
yrian	-11.997
▁major	-11.997
▁iTunes	-11.997
teeth	-11.997
▁election	-11.997
▁pedophile	-11.9971
▁corr	-11.9971
Miss	-11.9972
loud	-11.9972
anni	-11.9973
conan	-11.9973
eporte	-11.9975
GAM	-11.9975
rican	-11.9975
ky	-11.9976
▁abusive	-11.9979
unlimited	-11.9981
▁exam	-11.9983
counter	-11.9985
▁1533	-11.9986
Skins	-11.9995
Bi	-11.9996
vels	-12
87,">	-12.0001
atto	-12.0004
▁rule	-12.0006
icense	-12.0008
▁plane	-12.0009
96,[	-12.0011
74,">	-12.0013
3792	-12.0014
83,">	-12.0017
82,">	-12.002
8,"	-12.0022
▁finish	-12.0023
hroom	-12.0025
bje	-12.0027
45,">	-12.0028
▁airport	-12.0035
▁somewhat	-12.0036
|---	-12.0042
=191	-12.0044
ssau	-12.0048
▁startup	-12.005
88,[	-12.0051
▁1397	-12.0053
fam	-12.0056
03,[	-12.0063
▁indicat	-12.0073
ncel	-12.0075
ould	-12.0086
rofile	-12.0088
vant	-12.009
tib	-12.0093
yself	-12.0095
irl	-12.0103
10,[	-12.0104
yA	-12.0107
▁1257	-12.0122
KO	-12.0135
fantasy	-12.0135
455	-12.0137
ory	-12.0143
----------------	-12.0147
▁wor	-12.0149
igner	-12.0154
44,"[	-12.0155
ymi	-12.0157
hai	-12.0165
971,	-12.0172
▁1423	-12.0179
isc	-12.0179
28?	-12.018
4391	-12.0186
apper	-12.021
66,**	-12.0214
95,"**	-12.0221
▁1112	-12.0226
castle	-12.0232
▁upvote	-12.0233
▁1602	-12.0252
Ox	-12.0255
Den	-12.0255
▁Podcast	-12.0262
photos	-12.0263
7,"[	-12.0265
▁ob	-12.0278
▁1513	-12.0279
72,">	-12.0289
59,">	-12.0291
erba	-12.0304
tnam	-12.0309
▁1553	-12.0333
▁1454	-12.0336
▁1292	-12.0336
▁>>>>	-12.034
sell	-12.0362
FZ	-12.0369
▁1603	-12.0372
▁1557	-12.0372
▁1451	-12.0381
need	-12.0386
▁1531	-12.0388
▁heav	-12.0396
▁1458	-12.0408
▁Student	-12.0412
▁inform	-12.0412
pQ	-12.0426
tter	-12.0428
▁1448	-12.043
▁1260	-12.0443
63,"[	-12.0451
▁mo	-12.0451
▁pot	-12.0486
▁1504	-12.0512
15.	-12.0514
▁1507	-12.052
▁1593	-12.0536
▁ready	-12.0546
▁1427	-12.0553
▁Bein	-12.0561
55,[	-12.0565
54,[	-12.0584
▁1607	-12.0606
▁1497	-12.0611
▁junk	-12.0625
▁1587	-12.0641
SEE	-12.0648
strict	-12.0679
▁1485	-12.0683
▁1577	-12.069
#.	-12.0692
▁1470	-12.0726
39,">	-12.0728
▁1508	-12.0738
iscussion	-12.0743
▁1457	-12.0743
looking	-12.0745
▁1302	-12.0798
▁mari	-12.0801
ept	-12.0804
449,"	-12.0806
▁1551	-12.0825
▁1570	-12.0857
bit	-12.087
▁continue	-12.088
▁1512	-12.0886
▁1534	-12.0896
468,	-12.0928
fat	-12.0939
13,"**	-12.0949
▁highway	-12.0965
rl	-12.0987
▁1525	-12.101
▁1481	-12.1025
08,[	-12.1035
▁skins	-12.1069
▁delet	-12.1071
850,"	-12.1074
▁1605	-12.1119
dk	-12.1119
▁York	-12.1135
kk	-12.1136
Gg	-12.114
▁1575	-12.1175
5&	-12.118
▁1569	-12.1183
urn	-12.1186
967,	-12.1188
483,"	-12.1207
ative	-12.123
▁imp	-12.1251
__	-12.1269
ically	-12.1278
8,"*	-12.1311
Rn	-12.1316
658,"	-12.1349
8,"[	-12.1357
▁Jon	-12.1392
11.	-12.1403
497,"	-12.1403
Vi	-12.1404
watching	-12.1409
La	-12.1414
640,"	-12.1419
▁1309	-12.1435
side	-12.1438
financing	-12.1439
▁1466	-12.1452
184,	-12.147
527,	-12.1502
IOS	-12.1554
▁diet	-12.1571
602,"	-12.1576
733,"	-12.1601
740,"	-12.1605
37,">	-12.1636
refin	-12.1646
▁Web	-12.1713
ical	-12.1745
ag	-12.1771
▁income	-12.1785
195,"	-12.1805
402,"	-12.1812
845,"	-12.1869
▁Cal	-12.1875
▁mandate	-12.1885
CS	-12.189
52,"[	-12.1896
urope	-12.1909
440,"	-12.1925
▁delete	-12.1965
550,	-12.2014
shif	-12.2015
495,	-12.2016
▁1228	-12.2031
users	-12.2039
457,	-12.2053
▁1618	-12.209
5,"*	-12.2092
38,[	-12.2105
/14	-12.2151
818,"	-12.2168
▁alt	-12.2207
38,">	-12.2215
841,"	-12.2242
tay	-12.2267
Ill	-12.2283
▁series	-12.2287
▁rese	-12.2318
9269	-12.2327
015	-12.2334
44,">	-12.2343
ovi	-12.2388
▁1262	-12.2388
▁cup	-12.2426
lde	-12.2436
▁Kill	-12.2455
822,"	-12.2492
zw	-12.2504
toys	-12.2531
511	-12.2534
OK	-12.2541
43,">	-12.2546
333,	-12.2562
009	-12.2577
924,	-12.2584
nything	-12.2598
851,"	-12.2618
182,	-12.2638
shu	-12.267
▁193	-12.2692
801,"	-12.2694
Students	-12.2719
▁multi	-12.2725
959,"	-12.2739
advise	-12.2745
0,"	-12.2746
840,"	-12.2752
plant	-12.2757
180,	-12.2758
tool	-12.2759
▁clim	-12.2773
647,"	-12.2775
▁image	-12.279
4,"[	-12.2792
365,"	-12.2804
▁fund	-12.2861
621,"	-12.2879
baf	-12.2883
799,"	-12.2889
event	-12.2906
Podcast	-12.2911
351	-12.2914
windows	-12.2917
815,"	-12.2923
boost	-12.2926
754,	-12.2939
benefits	-12.2946
awesome	-12.295
secure	-12.2952
Seriously	-12.2952
choice	-12.2953
Christ	-12.2954
murder	-12.2957
viral	-12.2958
attend	-12.2961
franc	-12.2967
course	-12.2975
profit	-12.2977
LT	-12.2982
computer	-12.2983
281,	-12.3003
bills	-12.3008
258,	-12.3008
hang	-12.3011
cash	-12.3022
civil	-12.3022
9,"[	-12.3041
anta	-12.3061
177,	-12.3071
▁mis	-12.3088
854,"	-12.3089
▁ticket	-12.3096
82,[	-12.3113
710,"	-12.3115
16,[	-12.3124
tball	-12.3127
328	-12.3128
711	-12.3139
807,"	-12.3146
1970	-12.3146
trial	-12.3155
364,	-12.3166
3016	-12.3177
nswer	-12.3183
▁NY	-12.3191
spor	-12.3198
PU	-12.3201
▁writ	-12.3202
year	-12.3205
▁1147	-12.3208
▁1414	-12.3208
lub	-12.3209
toss	-12.3216
▁coun	-12.3219
▁1298	-12.322
Swa	-12.3222
▁expl	-12.3223
452,	-12.3237
▁draw	-12.3242
▁punish	-12.3248
copa	-12.3262
▁Ever	-12.3283
remier	-12.329
▁accident	-12.3292
▁constant	-12.3293
ractice	-12.3298
glish	-12.3298
▁accus	-12.33
14192	-12.3301
ubreddit	-12.3302
podcast	-12.3303
nabble	-12.3303
ndependen	-12.3303
anniversary	-12.3303
strategies	-12.3303
▁Banderas	-12.3303
▁Community	-12.3303
▁beliefs	-12.3303
▁celebrities	-12.3303
▁prior	-12.3303
▁restriction	-12.3303
▁afford	-12.3303
▁bracelet	-12.3303
▁focus	-12.3303
▁provisional	-12.3303
▁endanger	-12.3303
▁anonym	-12.3303
▁large	-12.3303
▁trail	-12.3303
:-:|:-:	-12.3303
▁separat	-12.3304
supload	-12.3304
▁recipe	-12.3304
▁instances	-12.3304
CSGO	-12.3304
3347	-12.3304
▁pornography	-12.3304
▁respect	-12.3304
▁scheme	-12.3304
▁semi	-12.3305
▁deducti	-12.3305
-07-	-12.3305
▁accent	-12.3305
ixie	-12.3305
9255	-12.3305
▁vain	-12.3305
ambling	-12.3306
+-+	-12.3306
qzd	-12.3307
▁recourse	-12.3307
▁boss	-12.3308
▁brake	-12.3308
Health	-12.3309
▁practice	-12.3309
▁coke	-12.3309
▁piss	-12.331
whitening	-12.331
blocker	-12.3311
▁proper	-12.3311
urious	-12.3312
▁treason	-12.3314
▁filing	-12.3314
▁chargeback	-12.3316
6-4	-12.3316
534,">	-12.3318
lfil	-12.3321
▁swim	-12.3321
▁task	-12.3322
▁constantly	-12.3325
ators	-12.3325
4653	-12.333
▁advan	-12.3337
▁warranty	-12.3341
▁curb	-12.3346
▁screw	-12.335
94,"[	-12.3351
▁bright	-12.3351
howbox	-12.3353
▁proto	-12.3353
67,"[	-12.3357
tomy	-12.3358
33,">	-12.3362
▁teach	-12.3367
▁drive	-12.3368
▁gang	-12.337
dental	-12.3371
▁imagin	-12.3374
42,">	-12.3374
|:-:	-12.3375
▁coming	-12.3377
▁voter	-12.3381
river	-12.3385
578,">	-12.3385
▁Florida	-12.3397
ngers	-12.3399
oh	-12.3407
11300	-12.3408
hles	-12.3409
▁intend	-12.3414
stick	-12.3418
886,[	-12.3418
583,"	-12.342
633,"	-12.342
▁alter	-12.3437
▁surv	-12.3448
221	-12.3449
▁thre	-12.3451
itchen	-12.3455
▁lesson	-12.3457
862,"	-12.3464
819,"	-12.3465
field	-12.3466
921,"	-12.3472
bone	-12.3477
▁miles	-12.3484
assy	-12.3496
408,"	-12.3505
6038	-12.3507
mpre	-12.3509
roma	-12.3515
▁locked	-12.3518
panish	-12.3549
"">	-12.355
509,	-12.3555
212,	-12.3561
▁survey	-12.3562
70,[	-12.3567
748,"	-12.3574
202,"	-12.3575
od	-12.3579
43,"**	-12.3581
▁rele	-12.3593
▁Imay	-12.3596
501,"	-12.3599
▁1128	-12.36
664,"	-12.36
upporters	-12.3602
▁dia	-12.3603
▁cell	-12.3606
HIS	-12.3632
▁trespassing	-12.3652
▁justified	-12.3659
▁listen	-12.3659
pos	-12.3669
▁1016	-12.367
col	-12.3678
976,"	-12.3686
142,[	-12.3699
▁cute	-12.3706
▁header	-12.3711
965,"	-12.3717
50,"[	-12.372
4&	-12.3724
▁magne	-12.3729
421,"	-12.3739
▁1308	-12.3741
etty	-12.3742
508,"	-12.3749
992,"	-12.3762
33,"[	-12.377
949,	-12.3796
Merc	-12.3797
▁Chi	-12.3813
▁specialize	-12.3828
▁smoke	-12.3842
792,"	-12.3888
496,"	-12.3891
▁1358	-12.3899
Friends	-12.3907
▁seiz	-12.391
671,	-12.3911
▁Come	-12.3918
696,"	-12.3924
duct	-12.396
▁tape	-12.3985
▁1268	-12.3995
720,"	-12.4005
QI	-12.4017
▁STEA	-12.402
▁715	-12.4036
662,"	-12.4037
-19	-12.4047
=11	-12.4048
▁angry	-12.4056
uper	-12.4058
▁1362	-12.4088
▁1264	-12.4088
870,"	-12.4101
471,"	-12.4126
▁1198	-12.413
▁Because	-12.4139
gcl	-12.414
72,"**	-12.4162
iff	-12.4174
dfa	-12.4197
▁1258	-12.4197
746,"	-12.4206
310,"	-12.421
787,	-12.4228
lum	-12.4232
91,[	-12.4247
798,"	-12.4263
480,"	-12.4266
106,"	-12.4312
wide	-12.4313
970,"	-12.4315
aze	-12.4327
60,">	-12.438
patch	-12.4382
678,"	-12.4387
169,[	-12.4389
741,"	-12.4405
▁970	-12.4416
erance	-12.4423
reme	-12.4425
cert	-12.4456
▁button	-12.4465
▁verif	-12.4483
446,"	-12.4495
963,"	-12.4509
481,"	-12.4512
899,"	-12.4523
738,"	-12.4557
▁CR	-12.4584
896,	-12.4595
605,"	-12.4608
verb	-12.4639
nhu	-12.4639
2,###	-12.464
SY	-12.4648
796,"	-12.4668
factory	-12.468
▁pure	-12.4698
▁1424	-12.4706
5,"	-12.4707
MG	-12.4713
▁1584	-12.4719
809,"	-12.473
▁1155	-12.4737
orge	-12.4759
517,">	-12.4797
782,"	-12.4828
690,	-12.4829
▁1596	-12.4835
▁rac	-12.4837
5,"[	-12.4852
07	-12.487
3,"**	-12.4887
34,[	-12.4893
Dra	-12.4893
▁1306	-12.4912
▁1389	-12.4934
989,	-12.4968
▁1496	-12.4968
▁1159	-12.4969
994,	-12.4973
484,	-12.4977
▁1559	-12.4996
569,"	-12.5002
▁1483	-12.501
433,	-12.5026
▁0.	-12.5058
bein	-12.5069
630,"	-12.5089
▁attacks	-12.5098
▁1599	-12.5099
▁1462	-12.5117
▁apps	-12.5119
▁1518	-12.5138
Res	-12.5151
361,	-12.5158
786,	-12.516
▁dist	-12.5173
490,"	-12.5191
867,"	-12.5261
dder	-12.5316
836,"	-12.5323
▁1550	-12.5326
▁1586	-12.5337
Phen	-12.5338
Mp	-12.5374
mhd	-12.5389
▁1275	-12.5401
87,"[	-12.5427
826,"	-12.5459
▁pp	-12.5492
▁1161	-12.5501
644,	-12.5513
795,"	-12.5532
997,"	-12.5565
878,"	-12.5595
6,**	-12.5603
▁1270	-12.5606
935,"	-12.5613
671,"	-12.5661
ious	-12.5668
766,	-12.5688
6,"**	-12.5692
90,"[	-12.5703
deals	-12.5836
3311	-12.5851
/18	-12.5863
▁1280	-12.5867
162,	-12.5893
375,	-12.5907
▁ignoran	-12.5908
210,"	-12.5922
700,"	-12.5938
724,"	-12.596
▁authorit	-12.5984
875,"	-12.5985
318,"	-12.5996
547,"	-12.6031
605,	-12.6035
▁1290	-12.6042
oyd	-12.6045
403,"	-12.6056
ific	-12.6059
▁hir	-12.6096
nclusion	-12.6109
▁Ye	-12.6127
661,"	-12.6148
756,"	-12.6182
baz	-12.6224
844,"	-12.6238
14,"[	-12.6265
▁1367	-12.6289
424,"	-12.6327
617,"	-12.6339
▁ill	-12.634
493,	-12.6414
882,"	-12.6427
857,	-12.6435
778,"	-12.6437
420,"	-12.6442
▁assist	-12.6445
vidi	-12.6465
702,	-12.6465
712,"	-12.647
377,"	-12.6473
2,**	-12.6479
760,"	-12.648
footer	-12.6485
700,	-12.6517
▁nar	-12.657
434,	-12.6591
465,"	-12.6605
470,"	-12.6609
stitution	-12.661
833,"	-12.6615
613,"	-12.6622
276,"	-12.6638
Art	-12.67
848,"	-12.6708
542,"	-12.6711
697,"	-12.676
rden	-12.6762
987,"	-12.6767
762,"	-12.6799
79	-12.6805
761,"	-12.6834
504,"	-12.6864
772,"	-12.6903
185,"	-12.6909
600,"	-12.6934
708,[	-12.6965
19,">	-12.6992
orgi	-12.6999
847,"	-12.7006
876,"	-12.7016
646,"	-12.703
11,"**	-12.7033
▁1193	-12.705
MA	-12.7061
▁2015,	-12.7069
pla	-12.7088
pression	-12.7092
978,"	-12.7102
toleran	-12.7108
3,"8	-12.7118
rab	-12.712
131,"	-12.7179
261,"	-12.7189
8273	-12.7201
980,	-12.721
rgin	-12.7218
208,"	-12.7224
hand	-12.7231
▁1319	-12.7233
4211	-12.7236
7816	-12.7251
7,"#	-12.7295
433,"	-12.7296
mitted	-12.73
cia	-12.7325
4,"*	-12.7339
77,">	-12.7352
61,[	-12.7362
▁1246	-12.7365
340,"	-12.7369
▁defe	-12.7377
▁assure	-12.7389
439,"	-12.7396
349,	-12.7431
827,"	-12.7437
251,	-12.7458
dress	-12.7476
835,"	-12.7479
40,"**	-12.748
tric	-12.7493
768,"	-12.7514
▁WAN	-12.753
▁1375	-12.7537
238,"	-12.7579
308,"	-12.7601
Citizen	-12.7637
677,"	-12.7642
626,	-12.7668
▁natur	-12.7672
913,"	-12.7693
443,"	-12.7716
265,"	-12.7732
203,	-12.7738
873,	-12.7757
776,"	-12.7778
RA	-12.778
5,"""	-12.7807
860,"	-12.7812
▁1353	-12.7817
Uh	-12.7831
convenience	-12.7851
▁judg	-12.7865
erhei	-12.7869
791,"	-12.7873
survey	-12.7896
Yea	-12.79
jury	-12.7903
691,	-12.7918
Trad	-12.7919
NEW	-12.7946
quiet	-12.7948
discharge	-12.7952
closed	-12.7953
Store	-12.7955
discount	-12.7955
Legally	-12.7956
FYI	-12.7956
simple	-12.7956
buddy	-12.796
consent	-12.7962
680,"	-12.7962
family	-12.7962
108,"	-12.7964
business	-12.7965
▁1132	-12.7969
722,"	-12.7983
apital	-12.7984
could	-12.7984
Cert	-12.7987
▁damag	-12.7988
lose	-12.7996
order	-12.7999
sword	-12.8
3349	-12.8003
Let	-12.8011
High	-12.8022
2007	-12.8028
home	-12.8038
898,"	-12.8041
why	-12.8049
880,"	-12.8055
282,"	-12.8069
663,"	-12.808
▁physic	-12.809
982,"	-12.8096
▁accusation	-12.8097
udz	-12.8098
▁1396	-12.8102
342,"	-12.811
▁contractor	-12.8113
wire	-12.8125
▁2015	-12.8126
▁1369	-12.8133
812,"	-12.8135
6,"*	-12.8143
elves	-12.8144
▁Coin	-12.8149
▁individual	-12.8153
Acc	-12.8161
▁buil	-12.8166
▁Parent	-12.8175
immy	-12.8176
icide	-12.8178
akers	-12.8182
ccording	-12.8182
everything	-12.8212
▁1113	-12.8213
READ	-12.8213
orth	-12.8215
Umm	-12.8218
621	-12.8227
▁deni	-12.8229
inished	-12.8237
▁1025	-12.825
877,	-12.8254
▁prosecut	-12.8264
lthough	-12.8265
▁suppose	-12.8268
▁expunge	-12.8268
pendi	-12.8268
alaman	-12.8268
▁troll	-12.8273
ssum	-12.8273
▁responsibilit	-12.828
234,"	-12.8281
origin	-12.8282
29,"*	-12.8282
nlimited	-12.8283
▁1067	-12.829
HAT	-12.8295
etails	-12.8296
ermanent	-12.8299
document	-12.83
6683	-12.83
▁extort	-12.8301
Hutzler	-12.8302
16813157742&	-12.8303
Banana	-12.8303
physi	-12.8303
Marauder	-12.8303
Spreadshirt	-12.8303
Pintata	-12.8303
stablish	-12.8303
▁bartender	-12.8303
▁condemn	-12.8303
IANAL	-12.8303
Surveys	-12.8303
asphyxiation	-12.8303
responsive	-12.8303
snowdown	-12.8303
▁Mississippi	-12.8303
▁Pizzagate	-12.8303
▁activity	-12.8303
▁alimony	-12.8303
▁analysis	-12.8303
▁anxiety	-12.8303
▁communicat	-12.8303
▁confused	-12.8303
▁contradict	-12.8303
▁criteri	-12.8303
▁devastating	-12.8303
▁disagree	-12.8303
▁liqour	-12.8303
▁staff	-12.8303
▁therapist	-12.8303
▁toothpaste	-12.8303
▁squatters	-12.8303
Chicago	-12.8303
▁allegation	-12.8303
▁dipshit	-12.8303
▁doctrine	-12.8303
▁encourag	-12.8303
▁modified	-12.8303
▁practical	-12.8303
▁prospects	-12.8303
Agreed	-12.8303
collars	-12.8303
dawgshed	-12.8303
▁compromise	-12.8303
▁degrees	-12.8303
▁snack	-12.8303
▁Sadie	-12.8303
▁carelessness	-12.8303
▁lmao	-12.8303
▁machen	-12.8303
▁measure	-12.8303
▁penetrat	-12.8303
▁inclined	-12.8303
▁kann	-12.8303
Teefury	-12.8303
lobby	-12.8303
skateboard	-12.8303
▁psych	-12.8303
alkova	-12.8303
necessarily	-12.8303
▁mature	-12.8303
▁DNR	-12.8303
olluding	-12.8304
▁pocket	-12.8304
penalties	-12.8304
▁fishermen	-12.8304
Slicer	-12.8304
▁oppo	-12.8304
▁Fail	-12.8304
ulative	-12.8304
▁ballot	-12.8304
▁nonsens	-12.8304
6869	-12.8304
▁street	-12.8304
▁Utah	-12.8304
ubile	-12.8304
▁conflict	-12.8304
isregard	-12.8304
▁apartment	-12.8304
▁Street	-12.8304
Chaturbate	-12.8304
restricted	-12.8304
▁WEEK	-12.8304
▁proceed	-12.8304
▁observe	-12.8304
▁Accept	-12.8304
▁mercy	-12.8304
▁driveway	-12.8304
▁urges	-12.8304
▁assassinat	-12.8304
reckless	-12.8304
▁midnight	-12.8304
▁aspects	-12.8305
▁artery	-12.8305
64341	-12.8305
Electrics	-12.8305
▁sperm	-12.8305
broadcast	-12.8305
▁treasonous	-12.8305
harliequinnx	-12.8305
rigged	-12.8305
▁encounter	-12.8306
▁affi	-12.8306
cubone	-12.8306
calculat	-12.8306
▁DIE	-12.8306
▁indict	-12.8306
tshirthell	-12.8307
1846,[	-12.8307
ickstarter	-12.8307
▁operate	-12.8307
▁informant	-12.8308
▁$4.99	-12.8308
▁activities	-12.8308
▁oak	-12.8309
grooming	-12.8309
▁expos	-12.8309
▁Cheer	-12.8309
stees	-12.8309
ccsg	-12.831
navi	-12.831
phoenix	-12.831
▁diff	-12.831
Redbubble	-12.831
informed	-12.8311
▁unfortunately	-12.8311
▁Republic	-12.8313
▁nicht	-12.8313
fashion	-12.8313
▁crush	-12.8313
elinqu	-12.8314
osexual	-12.8314
▁peeing	-12.8314
▁Insu	-12.8315
▁resources	-12.8315
▁photograph	-12.8315
39,###	-12.8316
▁neg	-12.8316
▁balm	-12.8317
▁1956,	-12.8317
=1916	-12.8318
3884	-12.8318
▁veter	-12.8319
▁malic	-12.832
Product	-12.832
▁militia	-12.8321
▁marry	-12.8322
▁wood	-12.8323
masterbatch	-12.8323
▁bound	-12.8323
oster	-12.8324
▁Open	-12.8324
▁slide	-12.8324
invite	-12.8326
▁hunting	-12.8326
906,"#	-12.8327
cartier	-12.8327
saving	-12.8329
▁prime	-12.833
197,"	-12.833
▁mob	-12.8333
▁Lips	-12.8333
company	-12.8333
▁FUCKED	-12.8334
Sure	-12.8335
estro	-12.8335
668,"	-12.8336
▁clan	-12.8337
theism	-12.8338
▁hammer	-12.8344
Mike	-12.8348
835,[	-12.8348
293,">	-12.8349
67,"#	-12.8349
5385	-12.8349
105,"[	-12.835
Auto	-12.8351
elcome	-12.8353
839,"[	-12.8354
699,"[	-12.8356
hahah	-12.8357
▁skills	-12.8358
▁painful	-12.8359
▁poli	-12.8361
858,[	-12.8361
749,"[	-12.8362
▁stanford	-12.8364
756,[	-12.8367
177,[	-12.8368
skinny	-12.8371
433,[	-12.8374
5992,	-12.8375
stimul	-12.8375
115,"[	-12.8377
630,"[	-12.8377
245,[	-12.838
▁har	-12.8381
4832,	-12.8381
▁bark	-12.8381
223,">	-12.8383
035,[	-12.8384
▁barking	-12.8385
▁everybody	-12.8387
502,"[	-12.8391
5342,	-12.8392
85,"[	-12.8392
▁gather	-12.8399
%22	-12.84
▁verbal	-12.84
5592,	-12.84
4812,	-12.8401
5122,	-12.8401
5332,	-12.8402
threadless	-12.8403
sportfishing	-12.8404
56,"[	-12.8409
▁1316	-12.8409
5502,	-12.8409
4603	-12.841
▁spoofer	-12.841
▁childish	-12.841
▁million	-12.8411
75,"[	-12.8412
5512,	-12.8413
5302,	-12.8415
45,"[	-12.8416
48,"[	-12.842
4682,	-12.842
▁Hence	-12.842
917,[	-12.8422
▁fur	-12.8423
4672,	-12.8425
4692,	-12.8425
4722,	-12.8425
4602,	-12.8426
awg	-12.8426
5142,	-12.8427
MM	-12.8427
4882,	-12.8428
4772,	-12.843
4372,	-12.8431
5952,	-12.8431
5192,	-12.8431
5150	-12.8432
4742,	-12.8432
901,"	-12.8433
etting	-12.8433
geni	-12.8434
18,"[	-12.8434
▁anywhere	-12.8435
▁breakup	-12.8437
▁mile	-12.8437
5362,	-12.8437
4322,	-12.8438
5322,	-12.8441
▁station	-12.8441
5172,	-12.8442
287,"	-12.8443
▁sizer	-12.8445
5252,	-12.8449
752,"	-12.8449
4332,	-12.8451
4342,	-12.8451
5912,	-12.8452
4892,	-12.8453
5102,	-12.8453
Cops	-12.8453
10,"[	-12.8455
▁hom	-12.8455
86,"[	-12.8455
4712,	-12.8456
5372,	-12.8458
5272,	-12.8458
omic	-12.8461
900,"	-12.8464
328,[	-12.8464
5582,	-12.8464
▁blast	-12.8464
4752,	-12.8465
4652,	-12.8466
610,">	-12.8466
Teepublic	-12.8466
714,">	-12.8468
80,"*	-12.847
5262,	-12.847
▁careful	-12.8471
heeno	-12.8473
▁quarter	-12.8473
▁voluntar	-12.8473
▁unarmed	-12.8473
▁spread	-12.8473
▁Keto	-12.8473
52,"*	-12.8475
5242,	-12.8476
17,"[	-12.8478
5902,	-12.8478
▁combin	-12.8478
▁fantas	-12.8478
▁1350	-12.848
▁dig	-12.848
▁islam	-12.8481
5972,	-12.8482
4622,	-12.8483
311,[	-12.8485
48,"*	-12.8486
5222,	-12.8486
listic	-12.8487
5682,	-12.8489
-->	-12.8493
icul	-12.8495
4552,	-12.8496
5642,	-12.8499
5672,	-12.8499
▁cryin	-12.8499
omen	-12.8501
▁1249	-12.8507
tail	-12.8507
ndy	-12.8508
5202,	-12.8513
Gift	-12.8517
▁1282	-12.8519
5282,	-12.8519
%7	-12.852
▁Jan	-12.8523
▁advocate	-12.8527
326,[	-12.853
5602,	-12.8532
336,"""	-12.8535
12,"[	-12.8539
259,	-12.8542
84,"[	-12.8543
▁amaz	-12.8548
563,"""	-12.8549
▁refinanc	-12.8553
546,">	-12.8553
▁grams	-12.8555
457,">	-12.8555
165,"**	-12.8555
▁disposal	-12.8557
%5	-12.8561
4962,	-12.8565
omething	-12.8566
▁Delet	-12.8571
871,"	-12.8579
envy	-12.8582
Vint	-12.8583
void	-12.8586
▁2014	-12.8589
4972,	-12.8591
GH	-12.8591
tudz	-12.8592
▁1197	-12.8594
▁spit	-12.8595
070,"**	-12.8596
883,[	-12.8602
4222,	-12.8609
5622,	-12.8611
obo	-12.8612
▁exce	-12.8613
3475	-12.8616
714,"	-12.8616
907,"	-12.8617
▁Sil	-12.8621
TrumpS	-12.8623
▁1299	-12.8628
▁politician	-12.8629
ries	-12.8632
4628,	-12.8632
4982,	-12.8635
5072,	-12.8637
5998,	-12.8638
4912,	-12.8638
781,"**	-12.8639
5188,	-12.8641
▁1330	-12.8641
5772,	-12.8643
5508,	-12.8643
4292,	-12.8647
5507,	-12.8648
5968,	-12.8649
iaf	-12.865
ecipe	-12.865
604,"	-12.8655
5012,	-12.8656
PokemonGo	-12.8658
5712,	-12.8658
5598,	-12.8664
urchase	-12.8671
EFC	-12.8671
▁Sho	-12.8673
634,">	-12.868
5042,	-12.8681
4839,	-12.8681
4992,	-12.8681
5966,	-12.8685
4922,	-12.8687
5412,	-12.8688
5062,	-12.8689
5187,	-12.869
..............	-12.8692
tutorial	-12.8699
▁accountable	-12.87
5022,	-12.8701
749,"	-12.8703
5999,	-12.8705
▁SMAR	-12.8715
Yep	-12.8722
5752,	-12.8722
4952,	-12.8724
4624,	-12.8724
▁1255	-12.8726
4668,	-12.8733
bra	-12.8734
877,"	-12.874
4412,	-12.8741
5422,	-12.8742
5862,	-12.8744
5504,	-12.8744
4834,	-12.8746
▁tapes	-12.875
5964,	-12.8751
5432,	-12.8752
GZ	-12.8753
4462,	-12.8758
▁Cent	-12.8758
5594,	-12.876
5962,	-12.8761
▁1076	-12.8764
Mixer	-12.8774
5872,	-12.8774
▁convenience	-12.8776
5347,	-12.8777
5442,	-12.8779
4669,	-12.8779
4201,	-12.878
4818,	-12.8784
5128,	-12.8784
Stand	-12.8786
color	-12.8786
4708,	-12.8788
▁convicted	-12.8789
4472,	-12.8792
4817,	-12.8795
5092,	-12.8796
5938,	-12.8798
▁3500	-12.8798
4707,	-12.8799
4248,	-12.8809
5346,	-12.8812
900,">	-12.8813
5317,	-12.8814
block	-12.8816
▁EMS	-12.8819
5338,	-12.882
4819,	-12.883
5129,	-12.8831
6062,	-12.8832
5337,	-12.8833
5698,	-12.8834
4432,	-12.8835
4706,	-12.8836
4629,	-12.8838
anal	-12.8841
1982,[	-12.8841
5538,	-12.8842
stand	-12.8842
5939,	-12.8845
5492,	-12.8846
4816,	-12.8846
83,"""	-12.8848
▁1399	-12.8848
4709,	-12.885
5319,	-12.8851
4667,	-12.8852
5697,	-12.8853
▁replaced	-12.8855
5189,	-12.8857
4664,	-12.8857
5506,	-12.8857
▁supporters	-12.8857
4627,	-12.8858
5996,	-12.8859
5577,	-12.886
4836,	-12.8862
5969,	-12.8863
5186,	-12.8866
5578,	-12.8867
▁San	-12.8867
5822,	-12.8867
4246,	-12.8869
817,"	-12.8869
5832,	-12.8872
5336,	-12.8874
▁1060	-12.8875
5997,	-12.8876
5308,	-12.8878
4588,	-12.888
5599,	-12.8882
894,"	-12.8882
4548,	-12.8883
5596,	-12.8883
▁1082	-12.8884
4578,	-12.8885
4728,	-12.8891
5699,	-12.8892
5696,	-12.8893
5344,	-12.8896
5597,	-12.8897
4244,	-12.8902
4888,	-12.8903
4517,	-12.8906
fan	-12.891
4688,	-12.8911
▁handcuff	-12.8911
5124,	-12.8911
cell	-12.8913
4748,	-12.8916
clock	-12.8918
4576,	-12.8921
69,"[	-12.8921
4277,	-12.8924
4788,	-12.8924
4859,	-12.8924
21,"""	-12.8925
5852,	-12.8926
zoo	-12.8926
5358,	-12.8927
4854,	-12.8927
4778,	-12.8929
5198,	-12.893
5514,	-12.8931
5934,	-12.8931
4847,	-12.8932
5147,	-12.8935
47,"""	-12.8937
5314,	-12.8937
5248,	-12.8938
4519,	-12.8939
5307,	-12.8939
4607,	-12.894
046,[	-12.8941
4726,	-12.8941
5588,	-12.8941
5277,	-12.8942
4586,	-12.8943
4368,	-12.8944
4969,	-12.8945
4878,	-12.8945
5309,	-12.8945
5118,	-12.8948
5402,	-12.8949
4579,	-12.8949
4589,	-12.8951
4968,	-12.8951
4729,	-12.8952
▁$30	-12.8952
4977,	-12.8953
5168,	-12.8955
5932,	-12.8956
4852,	-12.8956
469,[	-12.8956
5254,	-12.8958
lord	-12.896
5587,	-12.8962
5334,	-12.8963
4242,	-12.8965
5312,	-12.8965
5777,	-12.8967
6052,	-12.8967
733,[	-12.8968
4620,	-12.897
5694,	-12.8972
4558,	-12.8972
4387,	-12.8974
4686,	-12.8977
5534,	-12.8981
4749,	-12.8982
5990,	-12.8983
5149,	-12.8985
4830,	-12.8986
4606,	-12.899
532,[	-12.899
5590,	-12.8991
4789,	-12.8991
▁1094	-12.8993
4609,	-12.8994
4306,	-12.8995
5692,	-12.8997
5518,	-12.8997
▁flat	-12.8998
5077,	-12.8998
5356,	-12.9
4556,	-12.9002
5960,	-12.9007
926,"	-12.9007
5548,	-12.9009
514,"	-12.901
-1355	-12.901
6092,	-12.9012
4876,	-12.9012
201,"	-12.9012
5359,	-12.9012
4544,	-12.9012
5178,	-12.9012
4507,	-12.9012
5849,	-12.9013
4679,	-12.9013
5574,	-12.9014
4307,	-12.9015
4537,	-12.9015
4572,	-12.9015
5108,	-12.9016
4514,	-12.9017
5589,	-12.9017
574,"	-12.9017
4574,	-12.9018
4696,	-12.9019
441,[	-12.902
5959,	-12.9023
5132,	-12.9024
5668,	-12.9025
5136,	-12.9025
4249,	-12.9026
11,"""	-12.9027
4559,	-12.9028
5268,	-12.9028
5166,	-12.9028
4237,	-12.9029
4389,	-12.903
▁intoxicated	-12.9031
5688,	-12.9033
5572,	-12.9035
▁1395	-12.9037
▁1402	-12.9042
4597,	-12.9043
997,[	-12.9043
4512,	-12.9045
4769,	-12.9045
4724,	-12.9045
5279,	-12.9046
4329,	-12.9048
5208,	-12.9048
4338,	-12.905
5756,	-12.9051
5568,	-12.9054
4347,	-12.9055
810,"	-12.9056
5988,	-12.9057
5708,	-12.9059
4964,	-12.9062
4542,	-12.9063
▁violated	-12.9066
5947,	-12.9066
4276,	-12.9068
6077,	-12.9069
5608,	-12.9071
4884,	-12.9072
5848,	-12.9074
4844,	-12.9076
5249,	-12.9076
5546,	-12.9076
4539,	-12.9077
4738,	-12.908
5237,	-12.9083
770,"	-12.9083
4506,	-12.9084
5658,	-12.9084
4317,	-12.9086
igital	-12.9086
747,"	-12.9086
5617,	-12.9087
5246,	-12.9088
5567,	-12.9092
5176,	-12.9094
920,"	-12.9095
4328,	-12.9095
031,[	-12.9097
4856,	-12.9099
5519,	-12.91
5528,	-12.9101
5532,	-12.9101
4899,	-12.9101
5256,	-12.9102
0,#	-12.9102
4304,	-12.9103
5244,	-12.9104
▁1093	-12.9104
aso	-12.9105
5354,	-12.9106
5127,	-12.9107
4694,	-12.9108
5328,	-12.9109
5266,	-12.9109
4374,	-12.9109
4646,	-12.9112
5647,	-12.9112
4636,	-12.9113
5257,	-12.9115
5326,	-12.9116
5936,	-12.9117
4604,	-12.9117
4639,	-12.9118
4842,	-12.9118
5709,	-12.9119
4674,	-12.9119
4397,	-12.912
5584,	-12.912
5758,	-12.9121
5298,	-12.9122
280,"	-12.9123
5087,	-12.9124
5206,	-12.9125
4717,	-12.9126
5759,	-12.9126
5516,	-12.9127
4782,	-12.9128
5086,	-12.9128
4319,	-12.9129
5329,	-12.913
4279,	-12.913
5619,	-12.913
5569,	-12.9132
5517,	-12.9133
5649,	-12.9134
5844,	-12.9134
5954,	-12.9134
5378,	-12.9135
5226,	-12.9135
5274,	-12.9135
5986,	-12.9137
5209,	-12.9137
1618,[	-12.9138
5164,	-12.9138
4272,	-12.9139
▁endorse	-12.914
5316,	-12.9141
5369,	-12.9142
4218,	-12.9142
5236,	-12.9143
Of	-12.9143
025,">	-12.9144
4988,	-12.9145
5109,	-12.9145
4554,	-12.9146
4362,	-12.9146
4367,	-12.9147
5606,	-12.9147
5869,	-12.9149
4316,	-12.9149
5046,	-12.9151
4872,	-12.9151
▁8686	-12.9151
6002,	-12.9152
5352,	-12.9152
5539,	-12.9152
4217,	-12.9154
473,"	-12.9157
5367,	-12.9158
5366,	-12.9158
991,"**	-12.916
400,"[	-12.916
556,">	-12.9161
5377,	-12.9161
5609,	-12.9162
5678,	-12.9162
5112,	-12.9163
5229,	-12.9163
5616,	-12.9163
4302,	-12.9164
4719,	-12.9165
▁3934	-12.9166
4987,	-12.9167
4756,	-12.9169
4716,	-12.9171
205,"	-12.9173
4382,	-12.9175
5477,	-12.9176
4908,	-12.9176
5919,	-12.9176
5537,	-12.9178
4759,	-12.9178
4577,	-12.9179
4274,	-12.918
603,"	-12.9181
4219,	-12.9181
785,"	-12.9182
▁prohibited	-12.9183
5536,	-12.9183
5529,	-12.9184
4762,	-12.9185
▁1176	-12.9186
4986,	-12.9186
4549,	-12.9188
4488,	-12.9195
5788,	-12.9196
4657,	-12.9198
4594,	-12.92
4534,	-12.9201
5044,	-12.9203
5089,	-12.9203
4567,	-12.9204
5126,	-12.9207
5868,	-12.9208
▁1238	-12.9209
4806,	-12.9212
4529,	-12.9212
5296,	-12.9214
4234,	-12.9216
5579,	-12.9216
5662,	-12.9218
4966,	-12.9219
4569,	-12.9219
5397,	-12.9219
4829,	-12.9221
5576,	-12.9224
4546,	-12.9224
Gu	-12.9226
4487,	-12.923
XY	-12.9231
4894,	-12.9234
5614,	-12.9235
4634,	-12.9238
4566,	-12.9239
5542,	-12.9243
5084,	-12.9246
4906,	-12.9246
5182,	-12.9249
4587,	-12.9251
5379,	-12.9251
4659,	-12.9256
4592,	-12.9256
4227,	-12.9257
4216,	-12.9258
5156,	-12.9259
5679,	-12.926
4516,	-12.926
5866,	-12.9262
5386,	-12.9263
4808,	-12.9264
4298,	-12.9265
5224,	-12.9267
4226,	-12.9267
4810,	-12.9268
5977,	-12.9268
4796,	-12.9268
5984,	-12.9269
5488,	-12.927
4547,	-12.927
4867,	-12.9271
5456,	-12.9271
4960,	-12.9271
693,"	-12.9272
4582,	-12.9273
4502,	-12.9275
5746,	-12.9275
4448,	-12.9277
4974,	-12.9277
5774,	-12.9279
4209,	-12.9279
5704,	-12.9279
5306,	-12.928
5082,	-12.9281
5234,	-12.9281
4632,	-12.9284
804,"	-12.9285
5056,	-12.9286
4727,	-12.9287
6230,	-12.9287
5399,	-12.9287
4734,	-12.9287
4849,	-12.9289
472,[	-12.929
▁1203	-12.9291
5789,	-12.9291
4312,	-12.9294
5562,	-12.9294
▁matched	-12.9296
4394,	-12.9297
5842,	-12.9299
4642,	-12.93
5726,	-12.9302
321,"	-12.9302
797,[	-12.9302
5487,	-12.9304
5501,	-12.9304
4886,	-12.9304
▁wary	-12.9305
4524,	-12.9312
5747,	-12.9312
5846,	-12.9312
5906,	-12.9312
5982,	-12.9313
5310,	-12.9314
5139,	-12.9315
4309,	-12.9317
4427,	-12.9317
5904,	-12.9317
6058,	-12.9319
5027,	-12.9319
4689,	-12.9321
5652,	-12.9324
5991,	-12.9326
4831,	-12.9326
4779,	-12.9326
4612,	-12.9328
5459,	-12.9329
4746,	-12.9331
4802,	-12.9331
4426,	-12.9333
4732,	-12.9333
bald	-12.9334
5137,	-12.9334
5199,	-12.9336
5706,	-12.9337
5074,	-12.9337
4699,	-12.9337
5556,	-12.9339
4889,	-12.934
4776,	-12.9341
5284,	-12.9343
5181,	-12.9343
5294,	-12.9343
5591,	-12.9345
4687,	-12.9347
4887,	-12.9347
4777,	-12.9349
5707,	-12.9349
4392,	-12.935
4269,	-12.9351
4376,	-12.9351
5627,	-12.9351
4357,	-12.9352
5196,	-12.9352
6072,	-12.9355
5522,	-12.9357
4879,	-12.9357
5979,	-12.9357
5757,	-12.9357
4747,	-12.9358
5119,	-12.9358
4377,	-12.936
5639,	-12.936
6039,	-12.9362
5961,	-12.9363
4522,	-12.9367
4379,	-12.9367
5276,	-12.9368
5169,	-12.9369
4557,	-12.9369
5049,	-12.937
6048,	-12.937
4676,	-12.9371
4482,	-12.9371
5197,	-12.9372
5467,	-12.9374
5586,	-12.9374
5059,	-12.9375
4562,	-12.9375
4697,	-12.9376
5357,	-12.9378
4449,	-12.9381
5806,	-12.9382
4477,	-12.9384
4299,	-12.9385
5956,	-12.9386
5116,	-12.9387
5782,	-12.9388
4621,	-12.9388
4236,	-12.9389
5429,	-12.9389
4456,	-12.939
4239,	-12.939
5768,	-12.9393
325,[	-12.9393
5439,	-12.9393
4326,	-12.9393
5728,	-12.9393
5130,	-12.9395
5292,	-12.9396
4677,	-12.9398
4957,	-12.9398
4532,	-12.9398
587,[	-12.9399
4252,	-12.9401
5798,	-12.9402
▁1326	-12.9402
4822,	-12.9402
5117,	-12.9402
7,"*	-12.9403
4386,	-12.9403
5219,	-12.9406
6032,	-12.9409
5957,	-12.9411
5167,	-12.9415
4327,	-12.9415
4510,	-12.9417
4580,	-12.9417
4469,	-12.9417
087,[	-12.9418
4536,	-12.942
5767,	-12.9421
523,"	-12.9422
5446,	-12.9423
5776,	-12.9424
4936,	-12.9424
5462,	-12.9426
orger	-12.9426
5717,	-12.9427
5769,	-12.9428
4976,	-12.9431
4837,	-12.9431
5669,	-12.9432
doc	-12.9433
▁worthy	-12.9434
5867,	-12.9434
5878,	-12.9434
5549,	-12.9434
5028,	-12.9435
5478,	-12.9436
4767,	-12.9437
5036,	-12.9437
5797,	-12.9438
4467,	-12.944
30,"1	-12.944
4458,	-12.9441
4599,	-12.9443
▁9952	-12.9444
4459,	-12.9444
5819,	-12.9449
5269,	-12.9452
4596,	-12.9453
5216,	-12.9454
564,"	-12.9454
5629,	-12.9455
864,"	-12.9456
5382,	-12.9457
4927,	-12.9459
5860,	-12.946
6079,	-12.9461
5424,	-12.9462
5466,	-12.9462
4429,	-12.9463
5152,	-12.9464
6028,	-12.9464
5179,	-12.9466
5500,	-12.9466
4939,	-12.9467
4956,	-12.9467
4446,	-12.9468
4262,	-12.9471
6024,	-12.9471
5796,	-12.9473
6074,	-12.9477
5817,	-12.9478
6056,	-12.9479
4958,	-12.948
5018,	-12.948
5808,	-12.9483
5737,	-12.9487
5447,	-12.9488
5392,	-12.9488
6054,	-12.9488
396,"	-12.9488
5418,	-12.9491
6057,	-12.9492
5667,	-12.9492
▁1323	-12.9492
6034,	-12.9495
5017,	-12.9495
6022,	-12.9495
5779,	-12.9497
4339,	-12.9498
5106,	-12.9498
5547,	-12.9498
4979,	-12.9498
5689,	-12.9499
5879,	-12.95
6044,	-12.9502
4264,	-12.9502
6047,	-12.9503
5634,	-12.9503
5454,	-12.9505
5259,	-12.9507
5267,	-12.9508
5742,	-12.9509
5847,	-12.951
▁1156	-12.951
4649,	-12.9511
4918,	-12.9513
4346,	-12.9514
5479,	-12.9516
5762,	-12.9517
4897,	-12.9519
4336,	-12.9519
4289,	-12.952
5076,	-12.9524
5687,	-12.9524
5722,	-12.9526
4947,	-12.9531
5659,	-12.9533
4437,	-12.9534
5067,	-12.9534
5656,	-12.9535
4862,	-12.9537
4840,	-12.9537
5464,	-12.9539
5069,	-12.954
4337,	-12.9541
5716,	-12.9542
4424,	-12.9542
4959,	-12.9544
5632,	-12.9544
5836,	-12.9544
5922,	-12.9547
4466,	-12.9547
5207,	-12.9547
5566,	-12.9549
5140,	-12.9549
5646,	-12.955
5736,	-12.9551
5886,	-12.9551
4780,	-12.9551
4647,	-12.9551
5994,	-12.9552
4637,	-12.9552
4497,	-12.9554
5812,	-12.9555
4256,	-12.9557
5327,	-12.9558
4619,	-12.9558
4740,	-12.9558
4770,	-12.9561
4270,	-12.9563
6007,	-12.9563
5898,	-12.9565
4739,	-12.9566
4489,	-12.9567
4436,	-12.9568
5657,	-12.9569
▁1126	-12.957
4257,	-12.957
4422,	-12.9571
4360,	-12.9573
4600,	-12.9573
5666,	-12.9574
5552,	-12.9574
5232,	-12.9574
5770,	-12.9575
4870,	-12.9575
5607,	-12.9576
5054,	-12.9576
5414,	-12.9577
6059,	-12.9579
▁electric	-12.958
4447,	-12.958
784,	-12.9582
5350,	-12.9583
6036,	-12.9583
▁645	-12.9585
4399,	-12.9586
4736,	-12.9589
4616,	-12.9589
5749,	-12.9589
5987,	-12.9589
5270,	-12.959
5897,	-12.9593
5227,	-12.9594
5047,	-12.9596
5764,	-12.9598
4970,	-12.9601
5526,	-12.9603
623,">	-12.9603
6076,	-12.9605
6026,	-12.9606
5496,	-12.9606
4396,	-12.9607
6037,	-12.9608
4442,	-12.9608
5840,	-12.9609
4932,	-12.9609
4617,	-12.9609
5032,	-12.9611
4737,	-12.9611
5839,	-12.9612
4946,	-12.9614
5079,	-12.9616
5950,	-12.9621
4380,	-12.9622
rmati	-12.9623
4499,	-12.9623
4809,	-12.9623
5916,	-12.9625
5097,	-12.9626
onsentual	-12.9628
5499,	-12.9633
4996,	-12.9634
4590,	-12.9634
4929,	-12.9636
4530,	-12.9637
5942,	-12.9639
6006,	-12.9641
4760,	-12.9641
5299,	-12.9642
5426,	-12.9644
5917,	-12.9645
5876,	-12.9647
670,	-12.9649
zone	-12.9649
4902,	-12.9649
4320,	-12.9652
5509,	-12.9652
5286,	-12.9653
320,"	-12.9653
5677,	-12.9654
6069,	-12.9654
5289,	-12.9655
1163,[	-12.9656
4404,	-12.9658
4807,	-12.9661
4206,	-12.9661
▁1394	-12.9662
6027,	-12.9663
5899,	-12.9663
4660,	-12.9663
5889,	-12.9665
▁investigat	-12.9667
5080,	-12.967
5676,	-12.9674
5816,	-12.9675
4907,	-12.9675
4757,	-12.9676
4207,	-12.9677
4626,	-12.9683
4909,	-12.9685
5829,	-12.9685
5427,	-12.9688
5057,	-12.9688
5096,	-12.9688
5469,	-12.9691
4826,	-12.9692
4352,	-12.9693
5070,	-12.9694
4232,	-12.9694
5828,	-12.9696
4827,	-12.9696
5854,	-12.9697
5297,	-12.9697
6042,	-12.9698
5287,	-12.9699
4961,	-12.9701
5260,	-12.9704
5404,	-12.9706
5376,	-12.9706
4240,	-12.9713
4997,	-12.9714
5107,	-12.9715
5389,	-12.9715
6029,	-12.9715
5159,	-12.9718
5099,	-12.9718
5340,	-12.9719
5489,	-12.9721
5838,	-12.9725
5452,	-12.9726
6049,	-12.9726
5856,	-12.9733
5341,	-12.9733
4247,	-12.9734
4369,	-12.9736
4656,	-12.9737
5146,	-12.9737
5121,	-12.9739
5540,	-12.9739
5732,	-12.974
5437,	-12.9744
6070,	-12.9745
4416,	-12.9748
NotA	-12.9748
4811,	-12.9748
4851,	-12.9749
5040,	-12.9752
4480,	-12.9752
4799,	-12.9753
5734,	-12.9754
5727,	-12.9755
5026,	-12.9755
5807,	-12.9756
6050,	-12.9759
▁1077	-12.9762
5360,	-12.9766
5068,	-12.9767
4406,	-12.9768
5157,	-12.9769
5882,	-12.977
5729,	-12.977
5387,	-12.977
5449,	-12.9772
5841,	-12.9775
5870,	-12.9776
4492,	-12.9783
5396,	-12.9784
4479,	-12.9785
5931,	-12.9789
4701,	-12.9794
5247,	-12.9803
5650,	-12.9803
5300,	-12.9804
4310,	-12.9805
4797,	-12.9805
5907,	-12.9805
5320,	-12.9812
5946,	-12.9812
4407,	-12.9815
4402,	-12.9815
5892,	-12.9817
6020,	-12.9817
5809,	-12.9818
5311,	-12.9819
4296,	-12.9821
5719,	-12.9822
5967,	-12.9826
4869,	-12.9827
4409,	-12.983
5559,	-12.9833
5861,	-12.9836
5929,	-12.9839
5636,	-12.9842
6030,	-12.9843
▁1036	-12.9845
5802,	-12.9845
5531,	-12.9848
4666,	-12.9849
5926,	-12.9853
4266,	-12.9855
▁664	-12.9857
4610,	-12.9857
ency	-12.986
5349,	-12.9861
4710,	-12.9862
6014,	-12.9863
4866,	-12.9865
5419,	-12.9866
4230,	-12.9867
4390,	-12.9869
6084,	-12.9869
5637,	-12.987
5029,	-12.987
5511,	-12.9871
790,"	-12.9874
5450,	-12.9875
5331,	-12.9875
5420,	-12.9875
5520,	-12.9876
5406,	-12.9876
5976,	-12.988
5927,	-12.9881
6012,	-12.9887
4750,	-12.989
4297,	-12.9897
5910,	-12.9898
4366,	-12.9899
5557,	-12.9899
5184,	-12.99
4571,	-12.9904
655,"	-12.9907
5407,	-12.9913
4282,	-12.9917
▁1254	-12.9921
6082,	-12.9921
5210,	-12.9923
5409,	-12.9923
4560,	-12.9924
5039,	-12.9926
4541,	-12.9927
5180,	-12.9933
▁1095	-12.9934
5131,	-12.9936
▁840	-12.9938
5792,	-12.994
4420,	-12.9941
4581,	-12.9945
262,"	-12.9945
4286,	-12.9945
5480,	-12.995
5751,	-12.9954
▁holder	-12.9955
▁1317	-12.9957
▁1090	-12.9959
5644,	-12.996
5019,	-12.9963
4792,	-12.9964
5110,	-12.9967
5417,	-12.9972
5690,	-12.9972
4460,	-12.9974
▁1185	-12.9975
5740,	-12.9976
838,"	-12.9983
4820,	-12.9984
5482,	-12.9984
5571,	-12.9985
616,[	-12.9986
5826,	-12.9988
5470,	-12.9989
▁1038	-12.9994
▁1398	-12.9996
▁1173	-13.0003
--->>>>	-13.0004
437,"	-13.001
4359,	-13.0013
4926,	-13.0015
4419,	-13.0015
4999,	-13.0019
5786,	-13.0021
4496,	-13.0022
▁175	-13.0022
▁571	-13.0028
5799,	-13.0034
5771,	-13.0036
4287,	-13.0041
5827,	-13.0042
5416,	-13.0042
5790,	-13.0042
213,"	-13.0046
4271,	-13.0049
5052,	-13.0054
▁senat	-13.0056
5626,	-13.006
5850,	-13.0061
5020,	-13.0063
4919,	-13.0072
5476,	-13.0077
5787,	-13.0077
5162,	-13.0078
5877,	-13.0088
313,"	-13.0088
5390,	-13.0088
5739,	-13.009
4439,	-13.0096
▁explosi	-13.0108
4400,	-13.0108
5810,	-13.0115
654,"	-13.0116
5497,	-13.0117
5030,	-13.0117
5066,	-13.0131
5887,	-13.0131
5081,	-13.0133
4417,	-13.0134
4511,	-13.0136
5859,	-13.014
▁occurre	-13.0145
5141,	-13.0148
532,"	-13.0151
4681,	-13.0158
4301,	-13.0165
▁1277	-13.0166
4231,	-13.0166
4930,	-13.0177
6067,	-13.0183
4371,	-13.0184
5016,	-13.0185
5041,	-13.0189
6019,	-13.0189
6086,	-13.0192
5702,	-13.0193
4601,	-13.0193
5191,	-13.0194
4917,	-13.0197
800,"	-13.02
6071,	-13.0201
6066,	-13.0206
5581,	-13.0207
5434,	-13.0208
5720,	-13.0211
5071,	-13.0214
▁1142	-13.022
▁1179	-13.0224
5440,	-13.0224
4857,	-13.0237
5457,	-13.0239
5766,	-13.0243
5700,	-13.0245
6031,	-13.0246
5486,	-13.0252
505,"	-13.0253
6208,	-13.0253
4381,	-13.0254
5951,	-13.0257
4241,	-13.0261
5060,	-13.0262
4321,	-13.0263
5161,	-13.0263
4916,	-13.0266
6046,	-13.0267
5871,	-13.0268
4280,	-13.0272
6021,	-13.0282
5484,	-13.0291
5754,	-13.0293
5211,	-13.0294
6009,	-13.0299
6017,	-13.0308
4501,	-13.031
5837,	-13.0312
6212,	-13.0319
4430,	-13.032
802,"	-13.0329
4761,	-13.0332
▁1096	-13.0332
5364,	-13.034
5989,	-13.0341
6060,	-13.0347
5949,	-13.0347
5781,	-13.035
5527,	-13.035
5010,	-13.0355
4410,	-13.0359
▁977	-13.0361
4786,	-13.0361
4702,	-13.0365
5008,	-13.0366
4858,	-13.0367
5541,	-13.0372
5261,	-13.0373
6016,	-13.0389
4700,	-13.0392
5681,	-13.0393
▁1207	-13.0418
Blo	-13.043
5857,	-13.0431
Lol	-13.0432
4644,	-13.0435
5251,	-13.0436
5212,	-13.0457
▁1380	-13.0465
824,"	-13.0467
5741,	-13.047
▁959	-13.0483
5177,	-13.0486
▁1355	-13.0487
5651,	-13.0487
5941,	-13.0499
manufacturer	-13.0501
918,"	-13.0502
4877,	-13.0521
176,[	-13.0523
4486,	-13.0525
▁957	-13.0527
4451,	-13.0532
4500,	-13.0545
6080,	-13.0548
▁Bla	-13.0553
5431,	-13.0554
5661,	-13.0559
▁1086	-13.0569
718,"	-13.057
5461,	-13.0574
5721,	-13.0574
960,"	-13.0579
4340,	-13.0587
▁assistan	-13.0587
985,"	-13.0587
▁1075	-13.0588
6041,	-13.0589
111,"	-13.0595
▁1192	-13.0601
392,"	-13.061
588,"	-13.0614
▁1385	-13.0621
4751,	-13.0628
▁1210	-13.0634
4901,	-13.0635
▁Profi	-13.0636
5051,	-13.0641
4481,	-13.0642
4476,	-13.0643
4461,	-13.0647
5911,	-13.065
6219,	-13.0655
▁1273	-13.0682
5901,	-13.0687
▁1244	-13.0693
5801,	-13.0694
5937,	-13.0695
666,	-13.0706
▁882	-13.0715
4766,	-13.0715
4821,	-13.0722
4989,	-13.0733
346,"	-13.0736
6224,	-13.0742
4401,	-13.0747
948,"	-13.0748
2277,	-13.0749
ITCH	-13.0752
5811,	-13.0756
4711,	-13.0766
4690,	-13.0767
5021,	-13.0771
159,"	-13.0782
4744,	-13.0803
4221,	-13.0817
314,"	-13.082
4259,	-13.0845
5471,	-13.0845
507,"	-13.087
4980,	-13.0885
6222,	-13.089
3777,	-13.0891
4787,	-13.0892
5711,	-13.0899
4509,	-13.0906
694,"	-13.0907
5896,	-13.0917
4896,	-13.0919
5031,	-13.0922
739,"	-13.0923
4349,	-13.0937
5881,	-13.0951
5401,	-13.0955
4949,	-13.096
6188,	-13.096
2290,	-13.0961
3277,	-13.0962
4491,	-13.0965
2490,	-13.0993
3683,	-13.1006
122,"	-13.101
▁1345	-13.1011
5551,	-13.1012
▁1406	-13.1016
556,"	-13.1018
5921,	-13.1019
6126,	-13.1025
4994,	-13.1028
4431,	-13.1029
6187,	-13.1038
6061,	-13.1063
2683,	-13.1065
4861,	-13.1067
3257,	-13.1093
6148,	-13.1105
2793,	-13.1108
4691,	-13.1109
813,"	-13.1112
699,"	-13.1117
814,"[	-13.1132
3244,	-13.1134
3214,	-13.114
572,"	-13.1142
4258,	-13.1151
▁1109	-13.1152
▁620	-13.1156
6186,	-13.1162
7,###	-13.1168
3881,	-13.123
363,"	-13.1241
2615,	-13.1246
559,"	-13.126
6001,	-13.1272
▁1043	-13.1275
vative	-13.1286
2255,	-13.1291
4630,	-13.1291
0_	-13.1303
3912,	-13.1315
2590,	-13.1327
4351,	-13.1347
▁1206	-13.1363
4527,	-13.1372
293,"	-13.139
4452,	-13.1396
3515,	-13.1396
929,"	-13.1401
3977,	-13.1404
▁hum	-13.1418
3657,	-13.142
6227,	-13.1448
1,"[	-13.1449
5091,	-13.1464
2393,	-13.1468
3872,	-13.1482
6119,	-13.1483
2257,	-13.1484
2656,	-13.1494
PLA	-13.1504
3672,	-13.1517
6159,	-13.1532
4924,	-13.1536
3555,	-13.1545
2453,	-13.1547
3826,	-13.1552
2214,	-13.1554
3284,	-13.1556
2914,	-13.1569
4181,	-13.1574
3781,	-13.1583
▁compar	-13.1588
▁1296	-13.1591
594,"	-13.1591
3219,	-13.1596
2695,	-13.16
une	-13.1602
4212,	-13.1606
902,"	-13.1607
3544,	-13.161
▁Clan	-13.1612
4457,	-13.1619
Mor	-13.1625
2248,	-13.1635
2081,	-13.1635
4149,	-13.1643
4967,	-13.1652
2663,	-13.1653
ordina	-13.1654
6146,	-13.1656
3407,	-13.1658
1990,	-13.1663
3707,	-13.1666
3472,	-13.1668
3933,	-13.167
3242,	-13.1672
3250,	-13.1673
2112,	-13.1681
964,"	-13.1687
4156,	-13.1695
2400,	-13.1698
3144,	-13.1705
2608,	-13.1708
4172,	-13.171
3882,	-13.1713
3246,	-13.1715
3821,	-13.1717
3581,	-13.1724
1983,	-13.1745
3914,	-13.1747
2512,	-13.1749
5671,	-13.1749
6127,	-13.175
4148,	-13.1751
3684,	-13.1758
4251,	-13.179
3632,	-13.1791
3225,	-13.1795
4130,	-13.1799
GOP	-13.1799
6158,	-13.1804
3708,	-13.181
3441,	-13.1811
2600,	-13.182
3831,	-13.1824
3660,	-13.1831
4163,	-13.1833
2263,	-13.1835
4211,	-13.1851
1,"#	-13.1862
528,"	-13.1863
549,"	-13.1867
6142,	-13.1874
4141,	-13.1877
2619,	-13.1881
2057,	-13.1887
166,[	-13.1889
2383,	-13.1895
3204,	-13.1898
2315,	-13.19
742,"	-13.19
3763,	-13.1915
3948,	-13.1915
▁1219	-13.1926
5281,	-13.1928
2460,	-13.1956
2095,	-13.1957
2632,	-13.1958
2688,	-13.1961
4122,	-13.1966
3381,	-13.1971
3825,	-13.1977
2260,	-13.1981
2446,	-13.1989
525,"	-13.1992
2420,	-13.1994
2246,	-13.2008
297,"	-13.2009
3486,	-13.2019
2819,	-13.2023
2436,	-13.2025
2507,	-13.2038
2222,	-13.2041
4121,	-13.2041
6174,	-13.2045
4093,	-13.2045
3482,	-13.2053
3744,	-13.2063
▁Complet	-13.2065
▁1097	-13.2067
2401,	-13.2068
736,"	-13.2068
2553,	-13.2074
3344,	-13.2076
4150,	-13.2077
2913,	-13.2078
3151,	-13.2092
4175,	-13.2094
2065,	-13.2096
3218,	-13.2103
6177,	-13.2111
3719,	-13.2116
2637,	-13.213
2624,	-13.2153
3652,	-13.2154
3891,	-13.2157
4132,	-13.2158
3165,	-13.2162
4187,	-13.2165
3487,	-13.2166
3431,	-13.2167
3401,	-13.2171
2437,	-13.2177
6129,	-13.2186
6166,	-13.2187
3877,	-13.2194
2201,	-13.2196
3956,	-13.221
2757,	-13.2229
3229,	-13.2231
4137,	-13.2234
4146,	-13.2235
2220,	-13.224
▁1162	-13.2241
2082,	-13.2242
2362,	-13.2249
2114,	-13.2252
1881,	-13.2253
2172,	-13.2265
2533,	-13.2266
3775,	-13.2273
3053,	-13.2288
3618,	-13.2293
3113,	-13.2294
1833,	-13.231
3263,"	-13.2313
3623,	-13.2316
3425,	-13.2321
3692,	-13.2321
4198,	-13.2323
2685,	-13.2326
6196,	-13.2327
2687,	-13.2327
3892,	-13.2338
3014,	-13.2341
2021,	-13.2345
2075,	-13.2347
1941,	-13.235
4159,	-13.2351
6160,	-13.2356
3268,	-13.2368
6121,	-13.2371
2276,	-13.2371
2811,	-13.2377
4111,	-13.2385
nation	-13.2387
3874,	-13.2391
3187,	-13.2401
2204,	-13.241
2506,	-13.2416
4189,	-13.2418
3920,	-13.2418
5239,	-13.2428
3132,	-13.243
trained	-13.2432
3469,	-13.2442
2557,	-13.2449
2330,	-13.2454
3697,	-13.2461
6141,	-13.2462
2731,	-13.2465
4161,	-13.2472
3704,	-13.2491
240,"	-13.2495
2070,	-13.2495
▁1180	-13.2496
▁purchas	-13.2503
6184,	-13.2503
3789,	-13.2503
164,[	-13.2515
178,"	-13.2532
3476,	-13.2536
3901,	-13.2536
260,">	-13.2545
4173,	-13.2552
ork	-13.256
2556,	-13.2562
2892,	-13.2577
2455,	-13.2581
3805,"	-13.2585
2694,	-13.2587
3510,	-13.2587
▁933	-13.2589
3536,	-13.2593
2346,	-13.2599
2239,	-13.2602
3526,	-13.2605
4123,	-13.262
3459,	-13.2624
3975,	-13.2625
4118,	-13.2629
1895,	-13.2631
3561,	-13.2643
2322,	-13.2651
2899,	-13.2653
1830,	-13.2659
3228,	-13.2662
3970,	-13.2686
160,[	-13.2689
4971,	-13.269
3429,	-13.2702
2478,	-13.2708
3332,	-13.2712
2969,	-13.2712
2405,"	-13.2728
3202,	-13.2744
2864,	-13.2747
▁1059	-13.2749
2007,	-13.275
4129,	-13.2752
2704,	-13.2753
3071,	-13.2758
3616,	-13.2761
2522,	-13.2766
2037,	-13.2777
3734,	-13.278
2004,	-13.2781
1706,	-13.2794
2229,	-13.2804
2521,	-13.2819
3161,	-13.2824
3405,"	-13.283
2388,	-13.2833
3666,"	-13.2839
2187,	-13.2849
675,"	-13.2852
6201,	-13.2864
2668,	-13.2864
2268,	-13.2884
3879,	-13.2888
2752,	-13.291
2073,	-13.2912
3866,"	-13.2919
2978,	-13.2934
3887,"	-13.2937
2829,	-13.2937
2002,"	-13.2941
3301,	-13.2942
3778,	-13.2945
▁1212	-13.2952
3118,	-13.2956
2136,	-13.2958
3767,	-13.2959
2571,	-13.2972
4166,	-13.2978
2479,	-13.2991
4162,	-13.2996
3294,"	-13.2997
938,"	-13.2997
3075,	-13.3001
3050,	-13.3008
1927,	-13.301
4145,	-13.3011
2243,	-13.3014
2125,	-13.3041
2052,	-13.3041
3088,	-13.3045
2127,	-13.3047
2964,	-13.3053
3176,	-13.3055
2792,	-13.3063
2466,"	-13.3064
89,"[	-13.3067
4138,	-13.3077
3705,"	-13.308
2797,	-13.308
3103,	-13.3083
2063,"	-13.3083
3239,"	-13.3088
4154,	-13.309
3940,	-13.3092
939,[	-13.3093
3568,	-13.3093
▁1068	-13.3094
519,"*	-13.3098
fighter	-13.31
2717,	-13.3101
2191,	-13.3107
3961,	-13.3112
2435,	-13.3129
2398,	-13.3131
2582,	-13.3133
2101,	-13.3135
4937,	-13.3136
2591,	-13.3136
288,"	-13.3142
3839,"	-13.315
3803,"	-13.3157
▁1135	-13.3161
2218,"	-13.3161
3466,"	-13.3162
2805,	-13.3187
2189,	-13.319
1871,	-13.3197
3716,	-13.32
1800,	-13.3203
2644,	-13.3211
▁1130	-13.3214
6191,	-13.3235
2654,	-13.3247
3559,	-13.3257
2205,	-13.327
3252,"	-13.3277
1751,	-13.3278
2485,"	-13.328
1946,	-13.3281
3251,	-13.3282
3209,"	-13.3282
3494,"	-13.3288
1695,	-13.3292
2228,	-13.3295
2266,"	-13.3295
2454,"	-13.3302
2235,	-13.3306
2966,	-13.3312
231,"	-13.3319
2078,	-13.3342
2905,	-13.3342
227,"	-13.3344
3642,"	-13.3344
3645,"	-13.3345
3467,"	-13.3348
3695,"	-13.3356
▁656	-13.3361
1936,	-13.3369
3691,	-13.3382
3644,"	-13.3383
716,"	-13.3385
2359,	-13.3399
589,"	-13.34
cious	-13.3403
3295,"	-13.3404
2929,	-13.3404
2259,"	-13.3407
4267,	-13.3408
3247,"	-13.3408
3454,"	-13.341
3794,"	-13.3426
3976,	-13.3427
2267,"	-13.3433
2837,"	-13.3439
2369,	-13.3439
4072,	-13.3451
1657,	-13.3452
3249,"	-13.3453
2045,	-13.3456
3665,"	-13.3456
3846,"	-13.3457
3669,"	-13.3461
3076,	-13.3463
2897,"	-13.3466
3085,	-13.3469
3829,"	-13.3479
2118,	-13.3487
3816,"	-13.3493
906,"	-13.3499
3869,"	-13.3499
3538,	-13.3501
889	-13.3504
3649,"	-13.3505
2123,	-13.3505
2940,"	-13.3511
2429,"	-13.3515
2067,	-13.3516
3243,"	-13.3523
3291,"	-13.3523
3567,"	-13.3526
3614,"	-13.353
2392,	-13.3531
1750,	-13.3533
2597,	-13.3539
3857,"	-13.354
4063,	-13.354
2018,"	-13.354
1646,	-13.3542
▁1407	-13.3543
3814,"	-13.3548
3929,	-13.3557
2492,"	-13.3559
3754,"	-13.3559
2933,"	-13.356
3629,"	-13.3561
2910,"	-13.357
2484,"	-13.3573
3554,	-13.3578
3516,	-13.3579
3861,"	-13.3581
2318,	-13.3583
3116,	-13.3584
3010,	-13.3585
2323,	-13.359
3643,"	-13.3591
3468,"	-13.3593
3216,"	-13.3596
2834,"	-13.3597
2573,	-13.3602
3679,"	-13.3604
3607,"	-13.3615
3843,"	-13.3615
4046,	-13.3616
3222,"	-13.3616
3206,"	-13.3617
2511,	-13.3622
2237,"	-13.3624
2602,	-13.3629
3492,"	-13.3632
5001,	-13.3633
3290,"	-13.3642
3445,"	-13.3648
2164,	-13.365
3442,"	-13.3651
3399,	-13.3663
2066,	-13.3665
3905,"	-13.3667
3299,"	-13.3679
3674,"	-13.3679
3650,"	-13.368
167,"	-13.3682
4071,	-13.3686
3849,"	-13.3686
3397,	-13.3687
4000,	-13.3695
3200,"	-13.3696
3212,	-13.3701
1891,	-13.3708
1744,	-13.3708
2903,"	-13.3723
3688,"	-13.3724
3211,"	-13.3724
2349,	-13.3729
16087	-13.3733
2884,"	-13.3733
3102,	-13.3734
2828,"	-13.3736
2846,"	-13.3757
3438,"	-13.3765
2040,"	-13.3768
3073,	-13.3774
2223,"	-13.3777
3780,"	-13.3794
2450,"	-13.3799
3447,"	-13.3799
3232,"	-13.381
974,"	-13.3815
2869,"	-13.3821
765,"	-13.3822
3274,"	-13.3826
1892,	-13.3828
2767,"	-13.3831
3709,"	-13.3832
2462,"	-13.3833
4082,	-13.3835
2087,"	-13.3835
4088,	-13.3836
2105,"	-13.3841
4060,	-13.385
1788,	-13.3851
3620,"	-13.3851
4084,	-13.3855
▁1204	-13.3859
2881,"	-13.3861
3673,"	-13.3866
3272,"	-13.3872
2406,"	-13.3873
3305,"	-13.3874
4080,	-13.3887
2576,	-13.389
2540,	-13.389
3409,"	-13.3893
2303,	-13.3895
3451,"	-13.39
2094,"	-13.3908
2861,"	-13.3922
3217,"	-13.3926
3627,"	-13.3927
3698,"	-13.3929
3916,	-13.3929
2474,"	-13.3931
2928,"	-13.3933
2984,"	-13.3937
1947,	-13.394
3855,"	-13.3941
2891,"	-13.3943
2448,"	-13.3944
2806,"	-13.3947
4087,	-13.3947
2874,"	-13.3949
2639,"	-13.3971
3653,"	-13.3975
3406,"	-13.3977
2849,"	-13.3978
▁1063	-13.3979
2209,"	-13.3986
2491,"	-13.3987
3034,	-13.3989
2279,"	-13.399
3448,"	-13.3994
2942,"	-13.4002
3706,"	-13.4005
4013,	-13.4007
2269,"	-13.402
1803,	-13.4025
3751,"	-13.4034
3503,"	-13.4034
negotiate	-13.4035
2534,	-13.4038
1847,	-13.4041
3894,"	-13.4048
3499,"	-13.405
3289,"	-13.4051
4009,	-13.4052
3689,"	-13.4053
3856,"	-13.4055
3354,	-13.4057
2270,"	-13.4058
721,"	-13.4059
2980,"	-13.406
3889,"	-13.4061
3966,"	-13.4068
3255,"	-13.4074
3006,	-13.4085
3626,"	-13.4087
2271,"	-13.4089
▁609	-13.4089
3464,"	-13.4092
2054,"	-13.4092
3069,	-13.4092
2825,"	-13.4096
2295,"	-13.4121
2244,"	-13.4127
2918,"	-13.4129
2692,"	-13.4134
2682,"	-13.4138
4036,	-13.4142
2432,"	-13.4146
▁continu	-13.415
2417,"	-13.4153
3230,"	-13.4156
3853,"	-13.4157
2635,"	-13.4164
3571,"	-13.4166
3413,"	-13.4167
3456,"	-13.4181
3774,"	-13.4184
lu	-13.4186
3636,"	-13.4186
3419,"	-13.4192
3938,	-13.4192
3498,"	-13.42
2250,"	-13.4205
4001,	-13.4207
3713,"	-13.4213
2251,"	-13.4213
2203,	-13.4215
2909,"	-13.4216
2495,	-13.4221
3462,"	-13.4241
3432,"	-13.4245
3458,"	-13.4246
3366,	-13.4255
2855,"	-13.4258
2979,"	-13.4262
3359,"	-13.4263
2008,"	-13.4269
3584,"	-13.4284
2084,"	-13.4291
3096,	-13.4295
2670,"	-13.4301
2221,"	-13.4302
1928,	-13.4305
2671,	-13.4319
2305,	-13.433
2366,"	-13.4338
2665,"	-13.434
2666,	-13.434
2071,"	-13.4341
2216,"	-13.435
ssociation	-13.4357
2068,"	-13.4373
3758,"	-13.4375
3286,"	-13.4376
2518,"	-13.4378
3145,"	-13.4379
2996,"	-13.4383
3477,"	-13.4391
3904,"	-13.4394
3430,"	-13.4396
3427,"	-13.441
3436,"	-13.4416
2657,"	-13.4418
2769,"	-13.4419
2426,"	-13.442
4091,	-13.4422
4059,	-13.4428
2734,"	-13.443
470,[	-13.4432
2831,"	-13.4439
2029,"	-13.4442
2951,"	-13.4448
2614,"	-13.4456
2219,"	-13.4458
2274,"	-13.4458
2853,"	-13.4459
2299,"	-13.446
477,">	-13.4469
2297,"	-13.4483
3804,"	-13.4484
2024,"	-13.4501
2780,"	-13.4502
2725,	-13.4505
3552,"	-13.4515
2830,"	-13.4517
4662,	-13.4518
3726,"	-13.4524
2316,	-13.4531
2611,"	-13.4535
3838,"	-13.454
2787,	-13.4546
2232,"	-13.455
3864,"	-13.4558
2810,"	-13.4569
2281,	-13.457
2044,"	-13.4571
2335,	-13.4574
1954,"	-13.4579
1904,"	-13.4579
2972,"	-13.4586
2922,"	-13.459
3099,	-13.4591
2649,"	-13.46
4089,	-13.4613
3349,	-13.4621
2779,"	-13.4624
3387,"	-13.4636
2938,"	-13.4643
3376,"	-13.4646
2415,"	-13.4648
3134,"	-13.4649
3730,"	-13.465
3135,"	-13.4666
2379,	-13.4675
3383,"	-13.4691
3562,"	-13.47
3543,"	-13.4713
3591,"	-13.4718
2718,"	-13.4719
3150,"	-13.4723
2047,"	-13.4729
3168,"	-13.4744
2927,"	-13.475
2363,"	-13.4753
2690,"	-13.4763
3833,"	-13.4767
3334,"	-13.4775
3385,"	-13.4777
3983,"	-13.4778
3368,"	-13.4781
2953,"	-13.4789
2011,"	-13.4797
3580,"	-13.4805
1673,	-13.4809
3040,"	-13.481
3513,"	-13.481
3876,"	-13.4816
3923,"	-13.4816
2241,"	-13.4816
2183,"	-13.4817
2912,"	-13.4821
832,"	-13.4823
2104,"	-13.4827
2091,"	-13.483
2298,"	-13.4836
1939,"	-13.484
3675,"	-13.4842
▁1123	-13.4862
2062,"	-13.4866
▁hotel	-13.4868
3378,"	-13.4872
4097,	-13.4878
1887,"	-13.4878
5217,	-13.4881
2672,"	-13.4895
2013,"	-13.4902
3324,"	-13.4913
2387,"	-13.4915
2751,"	-13.4925
2824,"	-13.4929
2707,"	-13.493
2128,"	-13.4943
1969,"	-13.4946
2956,"	-13.4948
2930,"	-13.4949
1859,"	-13.4953
2977,"	-13.4965
2022,"	-13.4966
1639,	-13.4975
3157,"	-13.4976
2604,"	-13.4979
1984,"	-13.498
2090,"	-13.4985
3771,	-13.4992
2931,"	-13.4994
87,"#	-13.4999
3188,"	-13.5002
2783,	-13.5004
2337,"	-13.5014
3721,"	-13.502
2785,"	-13.5024
2622,"	-13.5042
2088,"	-13.5044
2998,"	-13.5049
2698,"	-13.5057
3282,"	-13.5058
3283,	-13.506
2019,"	-13.5065
2048,"	-13.5085
3573,"	-13.5088
2378,"	-13.5095
3903,"	-13.51
2384,"	-13.5115
2144,"	-13.5115
▁cu	-13.512
2152,"	-13.5134
3980,"	-13.5137
2788,"	-13.5138
2867,"	-13.5138
1837,"	-13.5141
3316,"	-13.5154
4023,	-13.5156
3173,"	-13.5158
2915,"	-13.5171
3347,"	-13.5172
6,"[	-13.5176
1674,	-13.5231
3127,"	-13.5236
3191,"	-13.5237
2169,"	-13.5251
2371,"	-13.5256
2773,"	-13.5272
2056,"	-13.5272
2878,"	-13.5277
planning	-13.528
3288,"	-13.5287
3309,"	-13.5289
2027,"	-13.5321
2612,"	-13.5322
2370,"	-13.5327
3880,"	-13.5329
1883,"	-13.535
▁surpris	-13.5371
2818,"	-13.5373
1879,	-13.5377
2537,"	-13.5378
1909,"	-13.5388
3391,"	-13.5401
3117,"	-13.5405
2470,"	-13.5407
2150,"	-13.5419
▁1252	-13.5431
1961,"	-13.5432
2408,"	-13.5433
3112,"	-13.5434
2181,"	-13.5437
1834,"	-13.544
▁retr	-13.5447
3193,"	-13.5447
3783,	-13.5448
1868,"	-13.5448
2678,"	-13.5457
2860,"	-13.5475
2012,"	-13.5475
2109,"	-13.5481
sev	-13.5482
▁univers	-13.5482
3945,"	-13.5498
3357,"	-13.5504
1994,"	-13.5507
1767,	-13.5515
3126,"	-13.5535
2595,"	-13.5559
3319,"	-13.5564
351,"	-13.5572
3702,	-13.5574
2848,"	-13.5604
2689,"	-13.5613
2882,"	-13.5635
3530,"	-13.564
2307,"	-13.5648
2196,"	-13.5664
3198,"	-13.5687
2584,"	-13.5692
3531,"	-13.5693
2265,"	-13.5697
2208,"	-13.5698
2496,"	-13.57
2817,"	-13.5705
3153,"	-13.5705
2193,"	-13.571
3300,"	-13.5717
1925,"	-13.5719
2030,"	-13.5737
3372,"	-13.575
3586,"	-13.5763
2686,"	-13.5764
2727,"	-13.5811
3541,"	-13.5815
3925,"	-13.5817
3768,"	-13.5835
2777,"	-13.5852
2325,"	-13.5854
3725,	-13.5855
2156,"	-13.5868
2399,"	-13.5869
3361,	-13.5869
3996,"	-13.5878
2100,"	-13.5889
2786,"	-13.589
2755,"	-13.5898
3932,"	-13.5927
3353,"	-13.5938
3390,"	-13.5951
3812,"	-13.5952
2812,"	-13.5953
3393,"	-13.5964
3898,"	-13.5974
2565,"	-13.5974
2631,"	-13.5986
THER	-13.5997
2715,"	-13.6005
6,"#	-13.6021
2343,"	-13.6027
3186,"	-13.603
179,"	-13.6059
3749,"	-13.6063
3194,"	-13.6082
3827,"	-13.6084
2697,"	-13.609
1806,"	-13.6096
2097,	-13.6106
3550,	-13.6124
2716,"	-13.6127
1872,"	-13.6138
13600	-13.6159
194,"	-13.6208
3223,	-13.6212
4040,"	-13.6216
4016,	-13.6217
2199,"	-13.6227
2353,"	-13.6249
3999,"	-13.6256
▁pattern	-13.626
166,"	-13.6264
2561,"	-13.6282
2562,"	-13.6287
3386,"	-13.6291
2935,"	-13.6313
2332,"	-13.634
1737,"	-13.6344
2476,	-13.6348
3955,	-13.6376
3782,"	-13.6414
1645,	-13.6416
1814,"	-13.6422
2327,"	-13.6423
2765,"	-13.6431
Insta	-13.6457
2324,"	-13.648
1825,"	-13.6484
▁1054	-13.6503
transfers	-13.6518
3514,"	-13.655
2594,"	-13.6551
3845,"	-13.6585
2331,"	-13.6588
1820,"	-13.6607
2768,"	-13.6611
1771,"	-13.6613
2115,"	-13.663
2,"""	-13.6642
2355,"	-13.6648
laim	-13.6649
2803,"	-13.6664
4079,	-13.6681
2662,"	-13.6687
1355.	-13.6687
339,"	-13.6697
2599,"	-13.6715
2017,"	-13.672
2477,"	-13.6727
3315,"	-13.6733
4037,"	-13.6797
2548,"	-13.6817
/229	-13.6826
2442,"	-13.6836
1734,"	-13.6844
2740,"	-13.6852
3504,"	-13.6852
3574,"	-13.6861
3141,	-13.6868
5612,	-13.6897
motion	-13.6898
2770,"	-13.6942
1779,"	-13.6943
1709,"	-13.6954
3379,	-13.6969
1780,"	-13.6979
3841,"	-13.7004
3815,"	-13.7024
4069	-13.7037
▁figur	-13.7044
7065	-13.7047
8894	-13.707
2756,	-13.7077
3192,"	-13.7081
Driv	-13.7089
3115,"	-13.7108
ın	-13.7117
3850,"	-13.7152
rough	-13.7163
helping	-13.7169
▁1339	-13.7176
3308,"	-13.7188
728,"	-13.7207
▁1105	-13.7225
astic	-13.7226
5482	-13.7235
1831,"	-13.7255
▁diagnos	-13.7263
1682,"	-13.7266
6046	-13.7274
4034,"	-13.7289
9679	-13.7312
4481	-13.7316
▁relat	-13.7345
3128,	-13.7354
140,"	-13.7368
2558,"	-13.737
3455,"	-13.7381
▁1300	-13.7421
1635,"	-13.7456
load	-13.7496
tributi	-13.7514
4045,"	-13.7522
1652,"	-13.7559
793,[	-13.7588
▁Refu	-13.7638
▁apparent	-13.7638
2053,"	-13.7652
3396,"	-13.7673
2630,"	-13.7673
1980	-13.7698
5686,	-13.77
ndicate	-13.7733
296,"	-13.7744
▁1272	-13.7747
0010	-13.7751
-160	-13.7753
detail	-13.778
▁distri	-13.778
▁MOB	-13.7787
35,###	-13.779
nerg	-13.7796
67&	-13.7799
2772,"	-13.7805
attling	-13.7814
2523,"	-13.782
paper	-13.7821
3310,"	-13.7842
oundation	-13.7846
▁Accessor	-13.7858
electric	-13.787
2531,"	-13.787
fantas	-13.7871
spread	-13.7882
unarmed	-13.7882
voluntar	-13.7882
islam	-13.7882
Keto	-13.7884
▁Olympi	-13.7887
natur	-13.7887
▁smar	-13.7892
quarter	-13.79
execut	-13.7904
4024,"	-13.7907
2186,"	-13.7919
Florida	-13.7922
imagin	-13.7923
3207,"	-13.7925
1649,"	-13.7927
tream	-13.7938
airport	-13.7941
TestoGen	-13.7949
medals	-13.7951
41,#	-13.7959
sexual	-13.796
conscious	-13.796
section	-13.7965
Account	-13.7966
plug	-13.7969
diploma	-13.7969
foam	-13.7971
expens	-13.7972
whore	-13.7972
abuse	-13.7973
sibling	-13.7974
Clinton	-13.7974
Etsy	-13.7975
basic	-13.7976
extreme	-13.7976
agreed	-13.7977
$150	-13.7977
California	-13.7978
level	-13.7979
currency	-13.7979
services	-13.798
adult	-13.7981
Report	-13.7981
legitimate	-13.7981
create	-13.7981
correct	-13.7981
student	-13.7982
victim	-13.7982
fault	-13.7982
bitcoin	-13.7982
Facebook	-13.7982
Windows	-13.7983
children	-13.7983
taxes	-13.7984
4052,"	-13.7984
physical	-13.7984
attorney	-13.7984
write	-13.7986
through	-13.7987
three	-13.7988
hurt	-13.799
100%	-13.7992
couple	-13.7994
drop	-13.7994
citate	-13.7994
country	-13.7995
2798,"	-13.7996
4441,	-13.7999
blam	-13.8002
promotion	-13.8002
Blog	-13.8003
true	-13.8005
Question	-13.8006
half	-13.8007
valid	-13.8009
worth	-13.8012
launch	-13.8015
wants	-13.8016
1319	-13.8016
SHIT	-13.8022
▁impo	-13.8028
prison	-13.8031
THIS	-13.8036
fact	-13.8036
2816,"	-13.8036
1498	-13.804
2504,"	-13.8041
borate	-13.8041
2003,"	-13.8043
4667	-13.8049
3237,"	-13.8049
feel	-13.805
would	-13.8052
useful	-13.8065
3553,	-13.8069
ı	-13.8071
▁arra	-13.8072
boards	-13.8074
2895,	-13.8108
1793,"	-13.811
1853,"	-13.8111
▁terrorist	-13.8111
▁escort	-13.8112
ubscribe	-13.8113
▁charg	-13.8116
portfishing	-13.8117
Hav	-13.8123
1719,"	-13.8124
▁bankrupt	-13.8131
raft	-13.8137
2710,	-13.814
2498,	-13.8153
anız	-13.8154
▁(201	-13.8156
deny	-13.8156
2709	-13.8158
negligen	-13.8159
▁verba	-13.8159
▁deserv	-13.8161
5993,	-13.8162
▁kno	-13.8162
5963,	-13.8171
3611,"	-13.8175
4833,	-13.8178
1638,"	-13.8178
2247,"	-13.818
1643,"	-13.8182
2741,"	-13.8188
0156	-13.819
lready	-13.8192
3806,	-13.8193
ssault	-13.8194
5313,	-13.8201
▁improv	-13.8203
▁requir	-13.8205
mount	-13.8208
5123,	-13.8209
group	-13.8211
5753,	-13.8211
5593,	-13.8212
4665,	-13.8212
5345,	-13.8216
5933,	-13.8217
5303,	-13.8218
▁flexib	-13.8219
ctual	-13.8219
5185,	-13.822
5995,	-13.8223
5773,	-13.8226
4693,	-13.8226
▁specif	-13.8226
5353,	-13.8227
5965,	-13.8227
exi	-13.8227
4623,	-13.8228
5125,	-13.8228
5193,	-13.8229
5755,	-13.823
4853,	-13.823
5183,	-13.8232
4673,	-13.8232
▁promis	-13.8235
petition	-13.8236
5113,	-13.8237
5143,	-13.8237
5315,	-13.8237
5323,	-13.8238
5348,	-13.8238
▁innocen	-13.8239
4695,	-13.8244
5318,	-13.8244
2802,	-13.8245
4685,	-13.8245
5301,	-13.8246
5393,	-13.8247
4663,	-13.8247
5335,	-13.8247
5343,	-13.8248
5115,	-13.8249
5305,	-13.8251
5120,	-13.8252
5330,	-13.8253
5705,	-13.8253
5145,	-13.8254
4383,	-13.8254
▁accord	-13.8255
4147,	-13.8255
4615,	-13.8255
5355,	-13.8255
5701,	-13.8256
5304,	-13.8256
5153,	-13.8256
5763,	-13.8256
4363,	-13.8257
5175,	-13.8259
5395,	-13.8259
6023,	-13.8259
4635,	-13.826
4675,	-13.826
4680,	-13.8261
4608,	-13.8261
5750,	-13.8262
5775,	-13.8262
5595,	-13.8262
dator	-13.8262
5930,	-13.8262
5321,	-13.8262
5190,	-13.8262
5913,	-13.8263
5325,	-13.8263
4641,	-13.8263
5503,	-13.8264
5371,	-13.8264
4631,	-13.8264
4698,	-13.8264
4815,	-13.8264
5148,	-13.8264
4835,	-13.8265
4683,	-13.8265
5165,	-13.8265
cuffs	-13.8265
4855,	-13.8265
5368,	-13.8265
5381,	-13.8265
5144,	-13.8266
5105,	-13.8266
6055,	-13.8267
5943,	-13.8267
4678,	-13.8267
4611,	-13.8267
5111,	-13.8267
egis	-13.8267
5391,	-13.8268
4684,	-13.8268
5324,	-13.8268
5363,	-13.8268
4625,	-13.8269
5114,	-13.827
4723,	-13.827
5370,	-13.827
5160,	-13.827
4651,	-13.827
6051,	-13.827
4645,	-13.8271
5725,	-13.8271
5388,	-13.8271
4655,	-13.8271
5380,	-13.8271
4614,	-13.8272
4640,	-13.8272
5374,	-13.8272
5398,	-13.8273
▁frien	-13.8273
5194,	-13.8273
5100,	-13.8273
4633,	-13.8273
5935,	-13.8274
5163,	-13.8274
4618,	-13.8274
5778,	-13.8274
4303,	-13.8274
5394,	-13.8275
anufacturer	-13.8275
4814,	-13.8275
4638,	-13.8275
5373,	-13.8275
5745,	-13.8275
4773,	-13.8275
4733,	-13.8276
5155,	-13.8276
▁procedur	-13.8277
5351,	-13.8277
4613,	-13.8277
5151,	-13.8277
▁masterbat	-13.8278
5981,	-13.8278
Expos	-13.8278
4793,	-13.8278
▁licens	-13.8278
5985,	-13.8278
4881,	-13.8278
5748,	-13.8279
5780,	-13.8279
5104,	-13.8279
4315,	-13.8279
5174,	-13.8279
4658,	-13.828
▁valu	-13.828
5785,	-13.828
6063,	-13.828
12589	-13.828
4850,	-13.8281
quart	-13.8281
4875,	-13.8281
5703,	-13.8281
ortgage	-13.8281
5173,	-13.8282
tacks	-13.8282
Legal	-13.8282
4654,	-13.8282
4885,	-13.8283
▁deliver	-13.8283
4841,	-13.8283
5765,	-13.8283
5953,	-13.8284
5948,	-13.8284
5795,	-13.8284
5944,	-13.8284
4725,	-13.8285
5103,	-13.8285
6075,	-13.8285
4781,	-13.8286
6053,	-13.8286
hoenix	-13.8286
4705,	-13.8286
264,"	-13.8286
5791,	-13.8286
4343,	-13.8286
4775,	-13.8286
4813,	-13.8286
5793,	-13.8287
5983,	-13.8287
▁immediate	-13.8287
5975,	-13.8287
▁religio	-13.8287
5914,	-13.8287
5158,	-13.8287
5724,	-13.8287
4871,	-13.8288
5761,	-13.8288
5925,	-13.8288
6033,	-13.8288
4721,	-13.8288
5760,	-13.8289
5958,	-13.8289
4848,	-13.8289
4741,	-13.8289
4883,	-13.8289
5515,	-13.829
5154,	-13.829
accu	-13.8291
5731,	-13.8291
4308,	-13.8291
4771,	-13.8292
4845,	-13.8292
4341,	-13.8292
5940,	-13.8293
3687,	-13.8293
6025,	-13.8293
4353,	-13.8293
4661,	-13.8293
14784	-13.8293
4880,	-13.8293
5715,	-13.8293
Spec	-13.8293
6013,	-13.8293
3624,"	-13.8294
3685,	-13.8295
3637,	-13.8295
5733,	-13.8295
3633,	-13.8295
4893,	-13.8295
3745,"	-13.8295
14203	-13.8295
6065,	-13.8295
4895,	-13.8295
5723,	-13.8295
5918,	-13.8295
3663,	-13.8295
3612,	-13.8296
▁behavio	-13.8296
3639,	-13.8296
3601,	-13.8296
oncrete	-13.8296
3619,	-13.8297
13722	-13.8297
5195,	-13.8297
3680,	-13.8297
3634,	-13.8297
4388,	-13.8297
ubpoena	-13.8297
4344,	-13.8297
urprise	-13.8297
5743,	-13.8297
▁succe	-13.8297
4331,	-13.8297
spect	-13.8297
4704,	-13.8297
3608,	-13.8297
3793,	-13.8297
4348,	-13.8297
3606,	-13.8298
ooker	-13.8298
4393,	-13.8298
4370,	-13.8298
5920,	-13.8298
4355,	-13.8298
nstead	-13.8298
5794,	-13.8298
12375	-13.8298
4330,	-13.8298
3790,	-13.8298
4395,	-13.8299
▁constitut	-13.8299
3717,"	-13.8299
arliequinnx	-13.8299
4314,	-13.8299
3686,	-13.8299
3693,	-13.8299
5970,	-13.8299
3631,	-13.8299
4755,	-13.8299
4325,	-13.8299
3755,	-13.8299
eighbor	-13.8299
3603,	-13.8299
3701,	-13.83
4891,	-13.83
4795,	-13.83
3635,	-13.83
droid	-13.83
3750,	-13.83
3797,	-13.83
3610,	-13.83
3795,	-13.83
3764,	-13.83
▁registr	-13.83
4825,	-13.83
3712,	-13.8301
usiness	-13.8301
1250	-13.8301
ullshit	-13.8301
3788,	-13.8301
6707	-13.8301
3769,	-13.8301
8668	-13.8301
4324,	-13.8301
3742,	-13.8301
4385,	-13.8301
ifferent	-13.8301
12063	-13.8301
ivorce	-13.8301
4790,	-13.8301
3710,	-13.8301
8706	-13.8301
3776,	-13.8302
10231	-13.8302
4745,	-13.8302
3703,	-13.8302
3770,	-13.8302
3732,	-13.8302
4715,	-13.8302
▁impuls	-13.8302
4765,	-13.8302
551,"*	-13.8302
ouple	-13.8302
▁regulat	-13.8303
3739,	-13.8303
▁terror	-13.8303
3731,	-13.8303
--->>	-13.8303
4311,	-13.8303
4345,	-13.8303
6078,	-13.8303
▁critic	-13.8303
Pizza	-13.8303
uuuuuuu	-13.8303
Haha	-13.8303
6073,	-13.8304
3655,	-13.8304
3762,	-13.8304
hhh	-13.8304
spiri	-13.8304
stration	-13.8304
6081,	-13.8304
6045,	-13.8305
voked	-13.8305
3747,	-13.8305
4193,	-13.8305
5974,	-13.8305
3735,	-13.8305
3765,	-13.8305
5171,	-13.8305
5714,	-13.8305
6628	-13.8306
5973,	-13.8306
3736,	-13.8306
5978,	-13.8306
crib	-13.8306
ticipate	-13.8306
assan	-13.8306
percu	-13.8306
childs	-13.8307
3737,	-13.8307
4114,	-13.8307
▁Que	-13.8307
4112,	-13.8307
Mode	-13.8307
▁success	-13.8308
4731,	-13.8308
3759,	-13.8308
4155,	-13.8308
4133,	-13.8308
5735,	-13.8308
4898,	-13.8308
4313,	-13.8308
5713,	-13.8308
2863,	-13.8308
4373,	-13.8309
3654,	-13.8309
4108,	-13.8309
5738,	-13.8309
5928,	-13.8309
wners	-13.8309
4378,	-13.8309
12442	-13.8309
3183	-13.8309
ometimes	-13.8309
4874,	-13.8309
4115,	-13.831
5718,	-13.831
4100,	-13.831
6035,	-13.831
2893,	-13.831
4763,	-13.831
6083,	-13.831
dophile	-13.831
4157,	-13.831
4153,	-13.8311
actic	-13.8311
4124,	-13.8311
4398,	-13.8311
4106,	-13.8311
4323,	-13.8311
4305,	-13.8311
4714,	-13.8311
▁civ	-13.8311
hippi	-13.8311
4113,	-13.8311
4188,	-13.8311
4160,	-13.8311
5133,	-13.8311
ilms	-13.8311
4119,	-13.8312
4753,	-13.8312
ssues	-13.8312
4318,	-13.8312
4104,	-13.8312
4176,	-13.8312
4824,	-13.8312
5384,	-13.8312
6008,	-13.8313
4191,	-13.8313
2814,	-13.8313
4169,	-13.8313
6040,	-13.8313
4186,	-13.8313
5170,	-13.8313
2844,	-13.8314
4120,	-13.8314
4192,	-13.8314
3682,	-13.8314
1756	-13.8314
4164,	-13.8314
3667,"	-13.8314
3753,	-13.8314
4125,	-13.8314
▁LOL	-13.8314
4152,	-13.8314
4196,	-13.8315
4334,	-13.8315
▁2013	-13.8315
4127,	-13.8315
4134,	-13.8315
4185,	-13.8315
4102,	-13.8315
2872,	-13.8315
4131,	-13.8315
4103,	-13.8316
4791,	-13.8316
4774,	-13.8316
4197,	-13.8316
4168,	-13.8316
4167,	-13.8316
2862,	-13.8316
4117,	-13.8317
2856,	-13.8317
4136,	-13.8317
2800,	-13.8317
2871,	-13.8317
4199,	-13.8317
4174,	-13.8317
5573,	-13.8317
6015,	-13.8317
2880,	-13.8318
4178,	-13.8318
4143,	-13.8318
2851,	-13.8318
▁dumb	-13.8318
2886,	-13.8319
2813,	-13.8319
6011,	-13.8319
4158,	-13.8319
3483,	-13.8319
4142,	-13.832
epartment	-13.832
4190,	-13.832
3412,	-13.832
2839,	-13.832
4713,	-13.832
4116,	-13.832
2832,	-13.832
4863,	-13.8321
3651,"	-13.8321
3743,"	-13.8321
3414,	-13.8321
4194,	-13.8321
4823,	-13.8321
▁occ	-13.8322
4135,	-13.8322
4335,	-13.8322
4183,	-13.8322
4179,	-13.8322
2836,	-13.8322
2840,	-13.8322
2852,	-13.8322
6010,	-13.8322
5915,	-13.8322
ndex	-13.8322
2821,	-13.8322
3415,	-13.8323
4350,	-13.8323
4743,	-13.8323
4798,	-13.8323
4144,	-13.8324
6085,	-13.8324
3481,	-13.8325
4768,	-13.8325
6043,	-13.8325
1908	-13.8325
2866,	-13.8325
4139,	-13.8325
4165,	-13.8326
4718,	-13.8326
4764,	-13.8326
istration	-13.8326
2883,	-13.8327
5945,	-13.8327
6004,	-13.8327
6005,	-13.8327
4151,	-13.8327
6018,	-13.8328
3488,	-13.8328
4758,	-13.8328
6064,	-13.8328
3460,	-13.8328
4828,	-13.8329
3422,	-13.8329
Teep	-13.8329
5530,	-13.833
anche	-13.833
4794,	-13.833
4860,	-13.833
3421,	-13.833
3424,	-13.833
arges	-13.8331
2854,	-13.8331
2879,	-13.8331
3485,	-13.8332
2870,	-13.8332
4358,	-13.8332
Strang	-13.8332
4140,	-13.8332
4890,	-13.8332
2835,	-13.8333
tupid	-13.8333
5583,	-13.8333
3893,	-13.8334
3423,	-13.8334
3883,	-13.8334
pregna	-13.8334
2827,	-13.8335
5555,	-13.8335
GHT	-13.8335
4868,	-13.8335
3418,	-13.8335
5101,	-13.8336
▁thro	-13.8336
3489,	-13.8337
4864,	-13.8337
6003,	-13.8337
2449,	-13.8338
4105,	-13.8338
3478,	-13.8338
3982,"	-13.8338
4354,	-13.8338
5565,	-13.8338
2889,	-13.8338
2820,	-13.8339
crat	-13.8339
3699,	-13.8341
5544,	-13.8342
5513,	-13.8342
